<pad>	0
</s>	0
<unk>	0
,	-2.93242
'	-3.35914
▁	-3.46599
▁na	-3.75471
.	-3.78433
。	-3.94599
▁za	-4.05519
▁i	-4.16317
?	-4.22718
▁mu	-4.45616
▁'	-4.57266
▁ku	-4.61414
▁kana	-4.63254
▁tu	-4.83824
▁lra	-4.9103
▁ta	-4.98441
▁zi	-5.00785
a	-5.11755
▁nu	-5.15247
▁a	-5.36577
azi	-5.43243
!	-5.43975
、	-5.46367
u	-5.54589
▁ziya	-5.54922
的	-5.55914
)	-5.68662
;	-5.7031
(	-5.74552
嗎	-5.7831
i	-5.7973
▁u	-5.81261
▁mi	-5.82385
▁ma	-5.82722
ulra	-5.86411
an	-5.88661
▁mukuwa	-5.90458
na	-5.9405
了	-5.95865
我	-6.09602
nu	-6.14638
/	-6.15293
ruma	-6.1825
你	-6.24489
▁maw	-6.2608
ma	-6.26735
▁trau	-6.29047
▁kema	-6.29544
▁kani	-6.30604
▁eman	-6.3433
tu	-6.34816
▁intaw	-6.40511
ai	-6.40923
是	-6.4099
ami	-6.43848
▁harem	-6.44536
▁wari	-6.48137
在	-6.52467
我們	-6.55639
▁vavayan	-6.56548
▁pa	-6.59442
▁ni	-6.59527
▁zekalr	-6.59827
好	-6.62292
salaw	-6.68574
inayan	-6.70514
▁ka	-6.73285
aw	-6.74275
有	-6.7614
ay	-6.76325
說	-6.7873
「	-6.78904
▁kazu	-6.80297
▁saya	-6.82805
要	-6.83432
▁mena	-6.84177
他	-6.87505
▁ini	-6.87927
uwa	-6.88969
和	-6.93009
inava	-6.93878
時	-6.95201
人	-6.95953
▁ngadan	-6.96357
不	-6.9879
▁Pinuyumayan	-7.03003
▁takesiyan	-7.0481
來	-7.08189
及	-7.08757
kemuda	-7.09133
到	-7.09459
enan	-7.09474
名	-7.09856
▁karuwa	-7.12087
izang	-7.15512
就	-7.18233
alra	-7.21583
部落	-7.22618
▁sinsi	-7.22637
▁o	-7.22671
maranger	-7.23303
▁zuwa	-7.25429
上	-7.26024
▁ho	-7.28653
老師	-7.28656
▁ya	-7.29088
水	-7.2962
▁kakuwayanan	-7.31123
一	-7.31756
呢	-7.33527
可以	-7.3376
▁iyan	-7.34076
uma	-7.37632
▁maruwa	-7.37863
alrayan	-7.37901
izangan	-7.3833
吧	-7.38695
很	-7.38881
子	-7.40909
▁sa	-7.426
著	-7.42624
▁amalri	-7.43009
ari	-7.43314
▁valray	-7.43696
▁kemazu	-7.44361
▁“	-7.44991
為	-7.45117
▁kemay	-7.45128
大	-7.45761
:	-7.45785
uniyan	-7.46215
會	-7.46268
▁kaninu	-7.46291
ku	-7.46353
」	-7.46664
也	-7.4735
▁m	-7.47543
▁yan	-7.49806
後	-7.49876
pa	-7.50079
▁/	-7.50795
▁hē	-7.51111
inavayan	-7.51223
用	-7.52491
▁malrazam	-7.52497
”	-7.55154
▁sazu	-7.5532
n	-7.57117
azin	-7.57683
去	-7.58676
▁nanta	-7.59528
udalr	-7.5962
▁temuwamuwan	-7.60026
▁paisu	-7.60114
anay	-7.60234
將	-7.60243
沒有	-7.61159
當	-7.62324
▁zenan	-7.63356
▁mapiya	-7.63562
iniyan	-7.63642
▁kanini	-7.63683
meredek	-7.63752
▁piya	-7.65279
lri	-7.66123
被	-7.6628
-	-7.67165
則	-7.68185
mu	-7.68282
piya	-7.68792
y	-7.69452
族人	-7.69494
▁muruma	-7.70456
e	-7.71877
出	-7.72416
對	-7.72573
面	-7.72637
那	-7.72665
kamawan	-7.7305
等	-7.73432
re	-7.73692
之	-7.74175
▁nant	-7.74754
niyam	-7.75664
emanan	-7.75703
yan	-7.76672
sawariyan	-7.76755
▁kiyakarunan	-7.77042
ta	-7.78506
中	-7.79271
▁izu	-7.79389
認識	-7.79981
▁zinekalranan	-7.80671
▁alrak	-7.80792
▁ngai	-7.80837
auwa	-7.81094
mi	-7.81109
她	-7.8122
w	-7.81567
吃	-7.81982
以	-7.82342
如	-7.82435
yo	-7.8313
非常	-7.83488
▁pu	-7.83864
啊	-7.84019
▁kaninku	-7.84245
▁kanizu	-7.84399
▁kannu	-7.84707
▁demaway	-7.84765
maw	-7.84805
tratri	-7.85031
不是	-7.8509
karuwa	-7.85172
Asaw	-7.85253
▁anger	-7.85579
alri	-7.85875
▁pulu	-7.85892
alrup	-7.85992
▁paka	-7.86379
年	-7.8639
ali	-7.87233
男	-7.87288
ini	-7.87434
都	-7.87623
工作	-7.87764
而	-7.88085
▁vulay	-7.88191
iza	-7.88308
▁pakalrazam	-7.88694
itras	-7.88908
murung	-7.89105
▁kurelrang	-7.89668
現在	-7.8986
▁kare	-7.90667
下	-7.9082
▁tremi	-7.9098
於	-7.91343
卑南族	-7.92354
▁peniya	-7.92767
▁palakuwan	-7.92842
▁haremay	-7.92935
▁zuwaya	-7.92951
▁zant	-7.93102
▁muketrep	-7.93362
頭	-7.93383
“	-7.93718
as	-7.93928
ema	-7.94236
從	-7.94579
」,	-7.94987
一起	-7.95335
▁mekan	-7.95575
我是	-7.96204
▁auwa	-7.97012
k	-7.97296
sahar	-7.98092
但是	-7.9831
sizung	-7.9836
與	-7.98475
並	-7.99384
再	-8.00071
或	-8.00663
m	-8.00864
這	-8.01134
▁Valangaw	-8.01366
▁muzangiya	-8.01368
▁kananta	-8.01404
地	-8.01441
不要	-8.01716
▁zuma	-8.0175
▁misama	-8.01861
likuzan	-8.02273
malalup	-8.02452
ka	-8.0267
lrayuwan	-8.03069
因為	-8.03425
想	-8.03782
什麼	-8.0404
女	-8.04154
他們	-8.0454
▁puwa	-8.04602
▁miya	-8.04779
▁sasa	-8.05607
走	-8.05857
心	-8.05907
▁inani	-8.06041
ya	-8.0607
▁hung	-8.06224
▁Ulivelivek	-8.06425
▁wadi	-8.06619
▁p	-8.06741
▁kemuda	-8.06775
amelri	-8.07034
又	-8.0725
▁vulraw	-8.07279
▁in	-8.07375
▁nazu	-8.0753
小	-8.08579
你的	-8.08802
我的	-8.09523
izu	-8.09717
tra	-8.0976
家	-8.0991
大家	-8.10117
山	-8.10242
使	-8.10429
謝謝	-8.10786
由	-8.10835
元	-8.1097
▁Taiwan	-8.11135
做	-8.1119
▁vulavulayan	-8.11287
sa	-8.11494
點	-8.11533
▁saruma	-8.11638
▁mukasa	-8.11883
把	-8.11998
sede	-8.12268
給	-8.13329
所	-8.13341
uwan	-8.13368
日	-8.13992
▁ziyan	-8.14789
ni	-8.14961
還	-8.15264
風	-8.15318
讓	-8.15814
打	-8.16205
▁venavina	-8.16278
所以	-8.16322
分	-8.16465
:「	-8.16499
▁kemani	-8.1667
▁ivalri	-8.16683
▁melrivak	-8.16728
▁maralrak	-8.16904
zuwa	-8.16993
得	-8.17317
請	-8.17606
......	-8.17626
稱呼	-8.17636
他人	-8.18322
▁sahar	-8.19486
'.	-8.19722
lre	-8.19901
看	-8.20234
▁Asaw	-8.20308
uru	-8.20757
過	-8.20956
行	-8.21267
介紹	-8.21585
▁temu	-8.21663
...	-8.21784
▁hay	-8.22026
▁masalr	-8.22033
田鼠的	-8.22659
▁yē	-8.22709
是誰	-8.22842
▁dawa	-8.22983
sazu	-8.22984
▁nanku	-8.2324
▁sayhu	-8.23283
▁uwa	-8.2357
一個	-8.23621
▁inu	-8.24097
住	-8.24101
▁marengay	-8.24502
harem	-8.24624
這個	-8.24675
kemazu	-8.24717
▁nana	-8.26059
taw	-8.26199
▁mara	-8.26201
kema	-8.26953
地瓜	-8.27133
牛	-8.27699
▁emaeman	-8.27717
我要	-8.27778
▁lralrak	-8.27872
回家	-8.27941
▁petrir	-8.2807
三	-8.281
時要	-8.281
▁vurasi	-8.28362
▁ziyamaw	-8.28377
▁inku	-8.28504
▁pauwayan	-8.28581
的人	-8.28713
▁temakesi	-8.29179
▁kay	-8.2975
跳	-8.29939
malrazam	-8.30672
sinsi	-8.30925
Patakiw	-8.3096
這裡	-8.3126
kiya	-8.31487
向	-8.31751
的時候	-8.32012
enay	-8.32585
多	-8.32867
喝	-8.33352
▁awatr	-8.3363
語	-8.3393
▁kawi	-8.34241
▁merengay	-8.34307
你好	-8.34336
▁menadanadam	-8.34501
者	-8.34797
這樣	-8.34825
penauwa	-8.349
▁rahan	-8.35029
▁vi	-8.35093
▁kanant	-8.3597
是的	-8.36401
pu	-8.36632
lra	-8.36688
aputr	-8.3671
▁kazuwan	-8.36721
▁muwa	-8.36926
口	-8.37027
kemay	-8.37279
mena	-8.37672
marengay	-8.37705
2.	-8.3773
。」	-8.38233
菜	-8.38292
抓	-8.38416
uv	-8.3847
kay	-8.38603
快	-8.38641
作	-8.38694
aekan	-8.38919
弟弟	-8.39106
朋友	-8.39189
天	-8.39788
開	-8.39931
最	-8.40254
▁vuwa	-8.40278
ina	-8.40452
起來	-8.40549
▁impis	-8.40783
▁Dipung	-8.40991
▁pungadan	-8.40994
▁dalan	-8.41099
ang	-8.4114
哥哥	-8.41195
unin	-8.41224
▁kiyumalra	-8.41477
衣服	-8.4148
▁lima	-8.41508
▁kulang	-8.41738
/'	-8.41756
▁tuki	-8.42057
活動	-8.42132
pulu	-8.42211
到了	-8.42502
mitrepa	-8.42525
▁panadam	-8.42583
長輩	-8.43116
ki	-8.4323
ayan	-8.44396
傳統	-8.44743
kare	-8.44945
taten	-8.4506
哪裡	-8.45407
ra	-8.45502
飯	-8.45515
.”	-8.45537
▁pare	-8.46098
lritek	-8.46104
前	-8.46463
zi	-8.46482
學校	-8.46507
▁(	-8.46889
其	-8.47191
utr	-8.47516
外	-8.47555
▁aitrul	-8.47571
如何	-8.47592
▁mare	-8.47601
真	-8.47896
▁ayawan	-8.47938
aremeng	-8.47954
▁vulan	-8.4809
▁lruwatra	-8.48368
pana	-8.48597
▁kivulas	-8.48616
不會	-8.48757
▁palru	-8.48767
1.	-8.48797
▁kiping	-8.48996
▁ki	-8.49086
▁trang	-8.49364
成為	-8.49408
小米	-8.49416
長	-8.49575
▁alamu	-8.49645
們	-8.49698
kulavaw	-8.49812
▁puwapuwa	-8.50039
ur	-8.50352
wan	-8.50381
maresan	-8.50951
iya	-8.51006
▁musavak	-8.51017
近	-8.51249
叫	-8.51254
kazu	-8.5133
族	-8.51741
mukuwa	-8.52123
成	-8.52133
東西	-8.52362
yu	-8.52638
能	-8.52835
媽媽	-8.53179
自	-8.54233
名字	-8.54474
▁kikarun	-8.54498
怎麼	-8.54634
已經	-8.54659
今天	-8.54748
帶	-8.54823
uitras	-8.54947
▁da	-8.55038
法	-8.55138
學習	-8.55186
▁;	-8.5541
病	-8.55454
雞	-8.5546
ulid	-8.55483
▁penalisi	-8.55577
alriyan	-8.55633
▁kisiya	-8.55642
▁ngay	-8.55687
amiyan	-8.5571
ayam	-8.55717
papida	-8.55748
初鹿	-8.55857
avay	-8.55879
t	-8.55998
▁vali	-8.56048
▁senay	-8.56225
你們	-8.56236
▁marekamelrimelri	-8.56374
開始	-8.56583
買	-8.56873
回	-8.56905
adalrep	-8.57006
祖先	-8.5702
▁semenay	-8.57025
▁marayas	-8.57352
好的	-8.58
▁kiya	-8.58076
ng	-8.58346
才	-8.58517
kakuda	-8.58633
etu	-8.5896
makuwa	-8.5897
事	-8.58987
▁maka	-8.59531
mupana	-8.59538
▁mutu	-8.60315
amanan	-8.6039
▁sem	-8.60421
▁azu	-8.60487
▁lrayuwan	-8.60509
Samilikan	-8.60763
Sunay	-8.60773
pidaya	-8.60781
em	-8.61215
裡	-8.61321
那個	-8.617
遠	-8.62307
lralrang	-8.62366
手	-8.63145
流	-8.63176
禮	-8.63176
色	-8.63192
拿	-8.63229
動	-8.63405
處	-8.63569
直	-8.63634
種	-8.63643
送	-8.63675
指	-8.63789
拉	-8.63799
喔	-8.638
虛詞	-8.638
結婚	-8.63801
emetr	-8.6391
男子	-8.63935
▁imulri	-8.63986
▁dawdawan	-8.63988
▁temaramaw	-8.64001
▁kantaw	-8.64006
▁kanintaw	-8.64011
獵物	-8.64013
▁aidan	-8.6402
頭目	-8.64072
取	-8.64073
▁leman	-8.6413
▁pavekas	-8.64248
▁punapunan	-8.6425
兄弟姊妹	-8.64272
▁kaniyam	-8.64327
alrupan	-8.64506
mipalizing	-8.64608
▁saema	-8.65097
知本	-8.6512
▁nintaw	-8.65175
▁kan	-8.65473
借	-8.65482
▁t	-8.65695
奶奶	-8.66272
▁semasaharan	-8.66466
在哪裡	-8.66564
are	-8.66637
▁ha	-8.66802
喜歡	-8.66816
naniyam	-8.6705
▁zazuwa	-8.6715
甜	-8.67319
之後	-8.6744
'/	-8.6778
月	-8.67884
知道	-8.68021
▁iya	-8.68082
▁elak	-8.68351
!」	-8.69386
游泳	-8.69533
敬	-8.6961
爸爸	-8.69769
Siyang	-8.69815
er	-8.69866
mukasa	-8.69901
準備	-8.70017
位	-8.70182
en	-8.70348
se	-8.70434
還有	-8.70951
像	-8.71005
祭司	-8.71106
明天	-8.71205
inuyumayan	-8.71365
r	-8.71379
aziyu	-8.71735
',	-8.71791
iyan	-8.71875
o	-8.71965
▁kanan	-8.71968
正	-8.7208
自己	-8.72361
兩	-8.72395
下雨	-8.72445
kurelrang	-8.72499
▁imaran	-8.72523
▁sinalem	-8.72539
身	-8.72708
橡皮擦	-8.7283
相	-8.72836
花	-8.72849
告	-8.72875
屋頂	-8.72887
互相	-8.72889
▁viyaw	-8.72902
日本	-8.73059
▁payas	-8.73101
▁pareveliyas	-8.73108
▁tralun	-8.73146
▁temama	-8.73201
▁kadaw	-8.73322
▁siyataw	-8.73377
▁maruwadiyadi	-8.73381
▁pinivalrayan	-8.73384
▁zanum	-8.73387
3.	-8.73602
傳	-8.73808
原住民族	-8.74237
imu	-8.74796
elak	-8.7489
生	-8.74929
padang	-8.7502
miwari	-8.75292
往	-8.7531
▁mawmu	-8.75352
verayay	-8.75703
inay	-8.75793
ima	-8.75804
mare	-8.75976
祭典	-8.76128
▁Sunay	-8.76315
▁Samilikan	-8.76326
▁pidaya	-8.76331
▁vu	-8.76776
▁Patakiw	-8.77497
但	-8.77513
kiyami	-8.77641
親友	-8.78138
▁kaazu	-8.78248
痛	-8.78389
鳥	-8.78429
語言	-8.78442
祭祀	-8.789
▁sizung	-8.79088
ē	-8.7915
ekan	-8.79419
可	-8.79552
球	-8.79926
他是	-8.80007
入	-8.80145
美麗	-8.80182
五	-8.80194
ara	-8.80392
請問	-8.80826
錢	-8.81061
有空	-8.8115
進	-8.81314
草	-8.81657
分享	-8.8177
▁ama	-8.81774
各	-8.81808
無	-8.8192
evang	-8.82166
歌	-8.8227
起	-8.82374
生活	-8.82385
酒	-8.82405
掉	-8.82474
妹妹	-8.82556
▁k	-8.8265
教	-8.82743
理	-8.82767
且	-8.82809
背	-8.82883
表	-8.82884
sering	-8.82891
▁demikes	-8.82891
線	-8.82892
過去	-8.82944
打掃	-8.82952
為什麼	-8.83028
小孩	-8.83089
emalrupa	-8.83102
建和	-8.83111
▁palalisiyan	-8.83114
▁liyusan	-8.83179
▁muwai	-8.83212
四	-8.83286
▁derun	-8.83421
▁zinanuman	-8.83432
▁kinazuwan	-8.83435
▁vekal	-8.8357
▁kuwatrengan	-8.83574
▁aekanan	-8.83712
▁iziyu	-8.83727
你怎麼	-8.83769
▁parahan	-8.83814
冷	-8.83993
了很多	-8.84038
未	-8.84073
找	-8.84122
▁mazayazayar	-8.84158
▁way	-8.84399
▁kuwatreng	-8.84409
▁ra	-8.84461
▁wadiyan	-8.84502
▁lingatr	-8.84566
ira	-8.8459
為了	-8.85043
若	-8.85107
孩子	-8.85196
una	-8.85261
最後	-8.85545
熱	-8.85635
我沒有	-8.85692
▁Kulas	-8.8571
放	-8.85954
wa	-8.85972
ivi	-8.86195
ir	-8.86447
kalre	-8.86769
我們要	-8.86836
kiruwan	-8.86914
共	-8.86988
rung	-8.87197
su	-8.87402
5	-8.87444
in	-8.87858
az	-8.87914
台灣	-8.88041
在家	-8.88266
因	-8.88759
▁temarap	-8.88867
來了	-8.88934
irayan	-8.89243
水果	-8.89581
以前	-8.89916
paka	-8.89959
▁wa	-8.90109
接	-8.90218
iva	-8.9072
堂	-8.90867
semeneng	-8.90897
Kulas	-8.90943
alamu	-8.91136
kiumalra	-8.91224
▁veray	-8.91237
man	-8.91294
唱歌	-8.91385
li	-8.9139
ingku	-8.91479
azu	-8.9183
幾	-8.91837
▁muwarak	-8.92759
ulu	-8.92791
該	-8.92811
書	-8.93331
木	-8.93393
老	-8.93398
少女	-8.93406
製作	-8.93448
舞	-8.93487
muwa	-8.93572
除	-8.93707
上學	-8.93768
發	-8.93819
笑	-8.93871
門	-8.9389
一樣	-8.93891
明	-8.93902
離	-8.93934
回來	-8.93954
母	-8.93954
颱風	-8.93957
狗	-8.93967
火	-8.9397
利	-8.93981
類	-8.93982
光	-8.93984
參加	-8.93985
深	-8.93992
至	-8.93995
神	-8.93995
化	-8.93996
倒	-8.94001
低	-8.94001
健康	-8.94002
炒	-8.94002
油	-8.94002
爺爺	-8.94002
邀請	-8.94003
▁tremakaw	-8.94004
傳承	-8.94007
快樂	-8.94009
melavat	-8.94015
便	-8.94036
lrevek	-8.94058
Alang	-8.94059
▁kaninta	-8.9406
Alaw	-8.9409
pinialrak	-8.94109
因此	-8.94146
▁awlra	-8.94149
▁bas	-8.94242
▁Tayhok	-8.94246
▁semalem	-8.94303
▁venaaw	-8.94347
aydan	-8.94394
▁rawa	-8.94403
▁M	-8.94414
▁daman	-8.94425
▁zazek	-8.94485
▁raredek	-8.94594
palrivak	-8.94611
▁menaniwan	-8.94618
atalram	-8.94745
跟	-8.94747
ngawayan	-8.94819
玩	-8.94826
▁patraran	-8.94832
▁varasa	-8.94962
▁kemakawang	-8.94989
mavangavang	-8.9502
makalusu	-8.95163
ulr	-8.95241
巴拉冠	-8.95276
say	-8.95302
▁Puyuma	-8.95336
▁marelrang	-8.954
kuwalengan	-8.95461
s	-8.96014
好像	-8.96045
mukasaya	-8.96093
叔叔	-8.96148
iraw	-8.96299
emau	-8.96777
▁Likavung	-8.96809
等一下	-8.96972
▁trim	-8.97419
▁ē	-8.98127
就是	-8.9825
▁amanan	-8.9829
原住民	-8.98397
kana	-8.98442
一下	-8.98501
za	-8.98604
▁pi	-8.98897
eman	-8.98948
retra	-8.99318
食物	-8.99369
場	-8.99521
vi	-8.99709
alr	-9.00391
主	-9.00409
ama	-9.01143
sayhu	-9.01175
忘記	-9.01257
二十	-9.01257
▁nan	-9.0131
dawilr	-9.01347
uri	-9.01442
uy	-9.01683
話	-9.01841
外面	-9.01867
▁semangal	-9.0209
tri	-9.02443
anger	-9.02835
男人	-9.03073
想要	-9.03161
八	-9.03224
Panay	-9.03273
temakesi	-9.0336
atr	-9.03415
Likavung	-9.03415
muketrep	-9.03425
marayas	-9.03441
musavak	-9.03478
一次	-9.03828
十	-9.03944
祖父	-9.04124
太陽	-9.04377
yēn	-9.05021
歲了	-9.05079
十二	-9.05167
包	-9.05171
is	-9.052
裝	-9.05302
形	-9.05354
▁mar	-9.05385
nan	-9.05488
樣	-9.05706
竹	-9.05818
▁me	-9.05833
路	-9.05837
休息	-9.05867
青年	-9.05902
lray	-9.06018
村	-9.06026
歲	-9.06087
品	-9.06253
開車	-9.06276
本	-9.06289
量	-9.06291
去找	-9.06308
telu	-9.06338
久	-9.06375
具	-9.06376
▁dinaway	-9.06413
即	-9.06415
燒	-9.06433
野	-9.06438
道	-9.06444
式	-9.06475
唱	-9.06477
戰	-9.06494
很久	-9.06495
睡	-9.06498
翻	-9.06502
畫	-9.06502
▁Katratripulr	-9.06502
蜻蜓	-9.06502
漂亮	-9.06502
越	-9.06502
餓	-9.06502
公司	-9.06503
訓練	-9.06503
獻祭	-9.06505
整理	-9.06507
趕快	-9.06509
天空	-9.06514
iyanavayan	-9.06523
▁teluwa	-9.06524
emanamanan	-9.06532
而且	-9.06553
午餐	-9.06681
跳舞	-9.06692
▁tawlriyulr	-9.06741
▁dalilr	-9.06775
▁hikuki	-9.06776
▁valalisen	-9.06777
▁meniwan	-9.06777
▁puwarikanan	-9.06779
▁marengai	-9.06779
▁semasing	-9.0678
▁maruwadi	-9.06782
▁pinitrauwan	-9.06788
除了	-9.06801
重視	-9.06825
yun	-9.06892
▁wariwari	-9.06903
▁valiyan	-9.06964
▁akanan	-9.06993
▁kanta	-9.07138
▁trungutrungulran	-9.0718
▁sēhu	-9.07181
▁susu	-9.07182
▁lralrivuwan	-9.07183
▁vavuy	-9.07184
▁savak	-9.07199
▁pavulasay	-9.07307
我們的	-9.07328
▁mingadan	-9.07355
▁kavang	-9.07381
▁kaziyu	-9.07473
只有	-9.0772
我可以	-9.07752
▁maderu	-9.08043
ngku	-9.08155
布農族	-9.08189
▁muveruk	-9.08226
族語	-9.08242
▁kiyakarun	-9.08432
▁otobay	-9.08438
大家都	-9.08543
都是	-9.08784
kezeng	-9.08828
▁manueman	-9.08859
一點	-9.08964
同	-9.08996
動物	-9.09088
▁s	-9.0923
▁pavulas	-9.09241
▁vativatiyan	-9.09375
▁tavu	-9.09721
pare	-9.0974
穿	-9.104
ura	-9.10563
ilremes	-9.10571
接受	-9.10603
很多	-9.10712
不能	-9.10724
aziya	-9.10871
遇到	-9.10954
30	-9.11176
▁uri	-9.11243
邊走會到	-9.11291
不再	-9.11397
▁kuway	-9.11415
aya	-9.11453
百	-9.11713
5.	-9.11818
▁mareka	-9.11831
新	-9.1186
vetra	-9.12031
腳	-9.12143
nku	-9.13008
▁pat	-9.13068
人都	-9.13437
他的	-9.13649
有人	-9.13684
兄弟	-9.13994
比賽	-9.14161
物	-9.14332
祈雨	-9.14788
4	-9.14799
saw	-9.15174
那麼	-9.15191
mara	-9.15291
1	-9.15295
7	-9.15311
▁amelri	-9.15695
uway	-9.1659
etra	-9.1676
先	-9.16765
puwa	-9.16917
▁kara	-9.17116
以後	-9.17181
初鹿部落	-9.17235
我在	-9.17559
學	-9.17585
Lapang	-9.17605
dika	-9.17649
kani	-9.1776
這是	-9.18081
alum	-9.18225
velaliyas	-9.18342
台東	-9.18353
mianger	-9.18543
煮	-9.18796
辛苦	-9.19106
emelresap	-9.19327
那你	-9.19458
你去	-9.19713
南王	-9.19837
atrar	-9.20086
聽	-9.20116
落	-9.20209
梅花鹿	-9.20327
旁邊	-9.20328
更	-9.20399
問	-9.20419
▁pakangaway	-9.20454
也是	-9.20458
魚	-9.20485
6	-9.20526
聲	-9.2053
坐	-9.20542
代	-9.20588
常	-9.20607
蓋	-9.20612
受	-9.20637
感	-9.20641
定	-9.20684
收	-9.20714
公	-9.20719
立	-9.20731
越來越	-9.20743
死	-9.20748
繡	-9.2075
呼	-9.20755
政府	-9.20757
’	-9.20761
電話	-9.20764
電	-9.20765
談	-9.20771
父母	-9.20779
善	-9.20779
肉	-9.20783
短	-9.20785
浪	-9.20787
揹	-9.20788
教育	-9.20788
血	-9.20788
esungan	-9.20788
Givi	-9.20788
幸福	-9.20788
雲	-9.20788
▁tokay	-9.20788
終	-9.20788
拜訪	-9.20789
青少年	-9.2079
廁所	-9.20791
inavanava	-9.20791
祈使	-9.20791
祖靈屋	-9.20791
跑步	-9.20793
糯米飯	-9.20794
▁tavuniyan	-9.20795
閩南人	-9.20796
常常	-9.20798
生氣	-9.20798
喪家	-9.20798
多少錢	-9.20801
芋頭	-9.20802
肚子	-9.20803
物品	-9.20805
再見	-9.20807
土地	-9.20808
中午	-9.20808
進入	-9.2081
avutar	-9.20812
柱子	-9.20813
女性	-9.20815
送給	-9.20844
▁wadiyu	-9.20845
跟著	-9.20857
▁waditaw	-9.20866
sime	-9.20876
emevang	-9.2089
大獵祭	-9.20897
帽子	-9.2092
ezengan	-9.2092
▁vangsaran	-9.20922
tremekel	-9.20995
turukuk	-9.21056
▁terukuk	-9.21058
晚餐	-9.21076
▁lrengaw	-9.21099
▁mangayaw	-9.211
▁talrevaw	-9.21102
▁Matreli	-9.21102
▁kasungalan	-9.21103
▁Katripulr	-9.21104
▁kemezeng	-9.21106
▁pakirev	-9.21116
▁patavang	-9.21123
▁veras	-9.21138
▁temamataw	-9.21144
早上	-9.21148
▁imu	-9.21155
大家好	-9.21193
▁marama	-9.21367
tr	-9.21435
▁vau	-9.21548
▁ngidiran	-9.21563
▁demeru	-9.21576
▁humulr	-9.21576
▁talupung	-9.21578
▁minatray	-9.21583
▁katalaulepan	-9.21588
rasa	-9.21685
▁awa	-9.21729
正在	-9.2181
▁suwan	-9.21911
▁liveng	-9.21961
▁pung	-9.21991
▁semangalan	-9.2203
▁inta	-9.22069
▁pakavulay	-9.22129
▁ziyanay	-9.22294
看到	-9.22331
▁karauv	-9.22492
▁ising	-9.22533
ke	-9.22552
▁pupana	-9.22598
▁paseki	-9.22834
miinurung	-9.22896
一起去	-9.22976
▁may	-9.23083
avukulr	-9.23331
就可以	-9.23469
兄弟姐妹	-9.23584
姊姊	-9.23651
4.	-9.23941
▁salrangan	-9.24
愛	-9.24037
▁tem	-9.24541
▁semeneng	-9.24996
是什麼	-9.25368
真的	-9.25447
它	-9.25573
▁ika	-9.25783
只	-9.25842
▁Siyang	-9.25958
文化	-9.25973
則是	-9.26079
卑南族人	-9.2609
awan	-9.26184
地方	-9.26477
▁ci	-9.26535
mele	-9.26663
iniyam	-9.26759
部落的	-9.26791
sing	-9.26901
▁iva	-9.26974
在一起	-9.27147
變	-9.2733
完	-9.27345
賣	-9.27375
如果	-9.27615
做什麼	-9.27839
tavu	-9.27873
晚上	-9.27921
riya	-9.28123
我和	-9.28227
idap	-9.28232
放在	-9.28387
nung	-9.28856
一年	-9.29219
lr	-9.29262
還是	-9.29404
別	-9.29416
da	-9.29575
▁kin	-9.29586
awu	-9.29788
▁niru	-9.29891
at	-9.29964
自己的	-9.30266
▁itras	-9.30481
離開	-9.30495
有一	-9.31364
ayaw	-9.31578
etri	-9.31703
pi	-9.32016
我要買	-9.32291
誰	-9.32413
vu	-9.32415
kuwatreng	-9.32534
皆	-9.32598
enem	-9.32611
山上	-9.32754
pesi	-9.32852
kuret	-9.33023
是原住民	-9.33261
tihasar	-9.3383
kiyakarun	-9.34118
puwapuwa	-9.34198
Atrung	-9.34254
manueman	-9.34333
kinger	-9.34363
kiping	-9.34529
lingatr	-9.34649
mawmu	-9.34767
▁taw	-9.34824
turak	-9.34939
家人	-9.35106
網	-9.35303
ncumin	-9.35555
ung	-9.35989
▁ulr	-9.36028
陷阱	-9.36046
高	-9.36269
我想	-9.36484
▁kuret	-9.36515
重	-9.36598
工	-9.36805
馬	-9.36809
失	-9.36939
農	-9.36986
意	-9.37119
ludus	-9.37126
樹	-9.37129
利嘉	-9.37131
解	-9.37144
改變	-9.37146
求	-9.3715
昨天	-9.37177
方	-9.37256
平	-9.37259
atelr	-9.37262
刀	-9.37286
第	-9.37325
泰安	-9.37328
所有	-9.37335
切	-9.37371
全部	-9.37378
經	-9.37386
通	-9.37389
擦	-9.37395
格	-9.37396
布	-9.37406
釋迦	-9.3741
全	-9.37411
溪	-9.37417
編	-9.37419
車站	-9.3742
皮	-9.3742
小姐	-9.37423
獵場	-9.37423
教室	-9.37425
壞	-9.37428
夜	-9.37429
弟	-9.37429
跑	-9.3743
熟	-9.37431
讀書	-9.37431
信	-9.37436
器	-9.37436
眼	-9.37437
牧場	-9.37443
樓	-9.37444
已	-9.37445
patezelr	-9.37447
設	-9.37447
團	-9.37448
忙	-9.37448
轉	-9.3745
強	-9.37451
節	-9.37451
圓	-9.37452
怕	-9.37452
尾巴	-9.37454
施	-9.37454
鹽	-9.37454
殺	-9.37454
驕傲	-9.37454
Arimudan	-9.37454
alrivangvang	-9.37454
lriketri	-9.37454
temaranapaw	-9.37454
▁haramhaman	-9.37454
▁kurisepa	-9.37454
▁lavun	-9.37454
努力	-9.37454
汗	-9.37454
玉米	-9.37454
棒	-9.37455
號	-9.37455
阿里擺	-9.37455
▁semizung	-9.37455
週	-9.37455
鐮刀	-9.37455
龍過脈	-9.37455
▁102	-9.37455
聲音	-9.37456
穀倉	-9.37456
領袖	-9.37456
儀式	-9.37457
織布	-9.37457
木雕	-9.37457
發現	-9.37459
集會所	-9.37459
味道	-9.37461
多少	-9.37462
課本	-9.37462
要多喝	-9.37466
我們今天要去	-9.37467
方式	-9.37468
地震	-9.37472
另外	-9.37475
▁waluwa	-9.37475
石頭	-9.37481
今年	-9.37482
經過	-9.37482
處理	-9.37486
那些	-9.37488
四十	-9.37488
老人家	-9.37493
前往	-9.37494
紅色	-9.37496
走路	-9.37501
▁muwazangiya	-9.37506
生日	-9.37519
ivat	-9.37527
uzem	-9.37536
ēng	-9.37538
▁palruwan	-9.37553
alrevan	-9.3756
聊天	-9.37598
毛	-9.37632
uze	-9.3764
對於	-9.37651
epetru	-9.37711
sulray	-9.37744
還沒	-9.37788
▁Amis	-9.37819
▁luvuk	-9.3782
▁kantrini	-9.37823
▁kawikawiyan	-9.37824
▁biyoing	-9.37824
▁takakesiyan	-9.37824
▁kiumaumalr	-9.37825
▁piningaiyan	-9.37826
▁vangangesaran	-9.37826
▁piniangeran	-9.37827
▁parasan	-9.37827
▁tawki	-9.37835
▁kazekalran	-9.37841
▁puran	-9.37848
matemuy	-9.3785
▁pentrira	-9.37962
▁pinarahan	-9.38002
panadam	-9.38036
馬上	-9.38088
mulauz	-9.38139
▁kinasahar	-9.38141
puludus	-9.38142
▁palizing	-9.38142
▁variw	-9.38147
▁trinun	-9.38198
▁mirawa	-9.38214
事情	-9.38263
▁muvalis	-9.38303
▁walru	-9.38324
▁tingting	-9.38344
給你	-9.38353
veruk	-9.38369
▁likulraw	-9.3839
tazar	-9.38394
▁sanadaman	-9.38415
▁su	-9.38421
走了	-9.3843
在台東	-9.38506
從前	-9.38611
▁wayway	-9.38652
▁misa	-9.38766
▁mudaway	-9.3885
▁lralrakan	-9.38853
▁mupatraran	-9.3889
捕魚	-9.38972
▁Masaw	-9.38973
▁Tamalrakaw	-9.38976
▁Payrang	-9.38978
muvalivalis	-9.39027
▁nannu	-9.39361
ui	-9.39467
pavalis	-9.39483
udalran	-9.39521
▁Munay	-9.39551
▁vetriliyan	-9.39559
▁wariyan	-9.39595
▁saharan	-9.39627
輩	-9.39762
▁telu	-9.40074
▁d	-9.40087
▁Kasavakan	-9.40144
kipanadam	-9.40156
rina	-9.40259
▁taina	-9.40317
卑南	-9.40413
於是	-9.40415
台北	-9.40496
味	-9.40597
▁valri	-9.40753
▁dika	-9.40755
給我	-9.40799
▁kezang	-9.40889
azinan	-9.4089
rapi	-9.40997
狩獵	-9.41079
六	-9.41169
香	-9.41299
may	-9.41342
nant	-9.41347
ulre	-9.4135
我要去	-9.41584
另	-9.42247
幫我	-9.42611
直到	-9.42667
▁kutra	-9.42727
rahan	-9.42782
puka	-9.42821
留	-9.42822
mawmau	-9.42935
▁mekana	-9.43041
vuwa	-9.43181
rengay	-9.43281
▁pin	-9.43292
路上	-9.43305
anu	-9.43496
詞	-9.43651
▁pana	-9.43707
▁mari	-9.43789
kur	-9.44022
la	-9.44358
只要	-9.44405
si	-9.4458
mau	-9.4472
▁pini	-9.4482
也有	-9.45161
h	-9.45187
個	-9.45299
難	-9.45369
認為	-9.45634
講	-9.45722
wazuk	-9.45739
▁tinu	-9.45947
vulay	-9.46037
鄉	-9.46077
照	-9.46323
▁向	-9.46386
▁pilralrang	-9.46699
naziyu	-9.46873
有好多	-9.46906
卑南族的	-9.47264
▁kina	-9.47288
▁kemayan	-9.47506
往南	-9.47586
ladi	-9.47636
會下雨	-9.47765
ver	-9.47876
helr	-9.4789
那我	-9.47917
pak	-9.47966
▁ikalalup	-9.48347
▁。	-9.48388
二	-9.48909
▁nani	-9.48932
我們一起	-9.49105
的地方	-9.49433
mal	-9.49698
你要買	-9.5017
期	-9.50209
我跟	-9.50464
▁arekez	-9.5074
我們去	-9.50854
nanadaman	-9.51033
▁kimazayar	-9.51198
trem	-9.51922
筆	-9.51943
ip	-9.52119
lima	-9.52184
nanku	-9.52268
valri	-9.52396
kiumalr	-9.52444
kutrem	-9.52682
美	-9.52867
一些	-9.52944
祖父母	-9.53015
我會	-9.53035
我來	-9.53172
的工作	-9.53264
田	-9.53371
國	-9.53406
lraman	-9.5346
建築	-9.53497
dali	-9.53518
nay	-9.53881
kezang	-9.54093
ha	-9.54108
Iwan	-9.54245
Kasavakan	-9.54267
nintaw	-9.54271
revuwa	-9.54284
demaway	-9.54296
semangal	-9.54313
otobay	-9.54317
kakuwayanan	-9.5433
vali	-9.54349
kemani	-9.54358
lu	-9.54376
kanini	-9.54388
wadiyan	-9.54438
vena	-9.54459
pauwayan	-9.54471
puwalrang	-9.54508
eng	-9.54534
saema	-9.54545
你有幾個	-9.54843
hu	-9.5488
ungal	-9.55067
panana	-9.55174
時間	-9.55404
養	-9.55638
ket	-9.55881
palru	-9.56007
希望	-9.56043
veray	-9.56175
女朋友	-9.5619
食	-9.5629
每	-9.56309
親	-9.56338
負責	-9.56393
秋天	-9.5647
少	-9.56606
舉行	-9.56627
您	-9.56656
原	-9.56675
寫	-9.56736
wavaawan	-9.56746
veliyas	-9.56759
某	-9.56768
排	-9.56827
祖母	-9.56839
tay	-9.56911
雨	-9.56918
paseki	-9.5695
建	-9.5698
子孫	-9.57008
ngangara	-9.57024
兒	-9.57025
到田裡	-9.57029
我不	-9.57041
關	-9.57137
danaw	-9.57214
剛剛	-9.57216
停	-9.57298
角	-9.57307
訪問	-9.57359
板	-9.57365
層	-9.57369
條	-9.57373
鍋	-9.57377
米	-9.57386
待	-9.57388
加	-9.57388
星期	-9.57392
偷	-9.57395
年輕	-9.57402
世	-9.57407
園	-9.57408
羊	-9.57409
相互	-9.57412
合	-9.57415
完成	-9.57416
統	-9.57419
種植	-9.57421
需要	-9.57421
去打獵	-9.57425
改	-9.57426
料理	-9.57426
曾	-9.57426
文	-9.5743
鐵	-9.57434
爭	-9.57435
應	-9.57436
七	-9.57437
稻	-9.57437
示	-9.57438
準	-9.57438
依	-9.5744
商	-9.5744
狀	-9.57441
飛	-9.57442
歷	-9.57443
傷	-9.57443
刺	-9.57444
招	-9.57445
我忘了帶	-9.57445
savelaw	-9.57446
緊	-9.57446
骨	-9.57447
同學	-9.57449
望	-9.57451
消	-9.57451
麻	-9.57451
擔任	-9.57452
紋	-9.57453
鈴鐺	-9.57453
冰	-9.57453
夢	-9.57453
幫忙	-9.57453
賞	-9.57453
選	-9.57454
張	-9.57454
壓	-9.57454
啦	-9.57454
星星	-9.57454
Papulu	-9.57454
inanavayan	-9.57454
mazakezak	-9.57454
paretrevung	-9.57454
parevalrukaw	-9.57454
pasaringsing	-9.57454
velelruwan	-9.57454
▁Yuancumin	-9.57454
▁kituvangsar	-9.57454
削	-9.57454
坡	-9.57454
埋伏	-9.57454
家庭	-9.57454
洞	-9.57454
蝴蝶	-9.57454
親戚	-9.57454
觀察	-9.57454
karawakan	-9.57454
惡	-9.57454
Alripay	-9.57455
呀	-9.57455
耶	-9.57455
率	-9.57455
雜	-9.57455
不好意思	-9.57455
世界	-9.57455
犁	-9.57455
takulris	-9.57455
到達寶桑	-9.57455
果實	-9.57455
困難	-9.57455
這是我種的	-9.57456
發祥地	-9.57456
苦	-9.57456
▁melale	-9.57456
攜帶	-9.57457
泰雅族	-9.57457
巫師	-9.57458
青菜	-9.57458
」、「	-9.57459
以免	-9.57459
早餐	-9.5746
交談	-9.57461
照顧	-9.57461
睡覺	-9.57461
通稱	-9.57462
編寫	-9.57463
輪流	-9.57463
陰天	-9.57463
▁vanin	-9.57465
發展	-9.57466
牆壁	-9.57466
應該	-9.57468
產生	-9.57469
我們要去打獵	-9.57471
爬山	-9.57473
能力	-9.57473
嚴重	-9.57474
目前	-9.57475
會議	-9.57476
相信	-9.57476
初鹿牧場	-9.5748
marasahasahar	-9.57484
kemutrem	-9.57487
無法	-9.575
▁kinalrazaman	-9.575
到達	-9.57503
長老	-9.57505
alrepat	-9.57511
▁awatranan	-9.57513
眾人	-9.57514
tatelraw	-9.57518
上課	-9.57519
有一天	-9.57543
arasaw	-9.57545
atayan	-9.57547
不客氣	-9.57555
我的名字是	-9.57563
有機	-9.57564
一家人	-9.57568
vavulayan	-9.57573
kamelriya	-9.57574
pukasayaw	-9.57602
ikaira	-9.57611
kemudakuda	-9.57625
kocong	-9.57642
出來了	-9.57642
不在家	-9.57681
emudalr	-9.57682
▁midap	-9.57698
會所	-9.57707
maratrang	-9.57725
放學	-9.57781
▁palisiyan	-9.57796
漢人	-9.57799
▁zekazekalr	-9.578
最近	-9.57849
▁lavang	-9.57863
▁kelun	-9.57896
▁kiyukay	-9.57905
▁kiyarais	-9.57906
▁kaidaidan	-9.57906
▁Pinaseki	-9.57907
▁temenun	-9.57911
venalray	-9.57912
▁venavalray	-9.57914
你們的	-9.57922
高興	-9.57939
▁viruwa	-9.57952
lataw	-9.5797
以及	-9.57986
今年幾歲	-9.58028
我已經	-9.58097
女子	-9.58125
地位	-9.5817
mipinadangan	-9.58175
ariyan	-9.58212
▁sinaleman	-9.58277
外地	-9.58313
mawili	-9.58321
▁tiyam	-9.58351
makaud	-9.58361
是啊	-9.58439
老人	-9.58481
我所	-9.58527
▁inupanayan	-9.58603
▁Angis	-9.58608
▁Bunun	-9.58608
▁dadaman	-9.58611
▁zemiyar	-9.58612
▁talraviyaw	-9.58614
▁vangavangan	-9.58614
▁kahuwahuwan	-9.58615
▁kiretrevung	-9.58644
mukasakasa	-9.58665
搬	-9.58667
▁kanmu	-9.58714
utran	-9.58752
▁dingwa	-9.58774
▁kuzulr	-9.58821
▁kali	-9.58899
pelra	-9.58944
▁!	-9.59034
▁paekan	-9.59092
misaharan	-9.59134
摩托車	-9.59143
次	-9.59206
▁kemuret	-9.59335
▁maziyazi	-9.5942
▁aramawa	-9.59481
urung	-9.59489
alusu	-9.59495
還好	-9.59506
50	-9.59518
tre	-9.59559
▁kemakuda	-9.59574
▁suku	-9.5959
分布	-9.59618
tung	-9.59648
uyu	-9.59688
mareveliyas	-9.59711
▁sayhuwan	-9.59728
▁marepa	-9.5973
來自	-9.59733
suku	-9.59859
▁vasikaw	-9.59904
▁pakangawayan	-9.59905
他的名字是	-9.59991
▁Raranges	-9.60059
▁kanazu	-9.60085
▁turak	-9.60707
比	-9.60721
▁Iwan	-9.6077
puitrasaw	-9.60775
我們家	-9.60777
tru	-9.608
muwaarak	-9.60853
▁kinger	-9.61377
傳統的	-9.61427
20	-9.61444
請問你	-9.61496
▁Atrung	-9.61504
找到	-9.61577
kakuwalengan	-9.61742
放置	-9.61958
▁tate	-9.61968
muravak	-9.62129
都會	-9.62215
▁Lapang	-9.62227
pakamelri	-9.6223
天氣	-9.62252
kalalup	-9.62406
muwaludus	-9.6245
▁dar	-9.62527
是我不	-9.62787
甚至	-9.62853
▁parev	-9.62958
真的很	-9.62979
un	-9.63055
就好	-9.6369
▁iyam	-9.64101
vatri	-9.64277
araw	-9.64353
斷	-9.64482
學生	-9.64572
不知道	-9.64579
也很	-9.64588
以往	-9.64651
兄	-9.64669
zazekazekalr	-9.64716
lremes	-9.64723
us	-9.64876
去哪裡	-9.65222
吃飯	-9.65287
yaw	-9.65566
▁n	-9.65912
▁lin	-9.66216
resan	-9.66474
目	-9.66527
你明天	-9.66546
▁karar	-9.66858
去看	-9.67075
居住	-9.67305
圍	-9.67313
的語言	-9.67429
es	-9.67433
ci	-9.67451
▁iwa	-9.67467
族群	-9.67521
臺灣	-9.67855
去學校	-9.68226
不在	-9.68477
dalrep	-9.68492
他在	-9.685
有下雨	-9.68652
婚姻	-9.6886
智慧	-9.68884
民族	-9.68885
一定	-9.69246
p	-9.69299
難得	-9.69702
機	-9.69767
nana	-9.69892
▁tema	-9.70375
的事	-9.70552
ilu	-9.7075
tala	-9.70829
▁temara	-9.70972
▁kip	-9.71027
河邊	-9.71158
aputran	-9.71287
小心	-9.71411
aelak	-9.71505
好吃	-9.71799
va	-9.71935
▁kuwadakuda	-9.7198
分為	-9.72033
不同	-9.72197
跟你	-9.72536
atra	-9.72548
▁kadika	-9.72553
群	-9.72659
回到	-9.73055
sem	-9.73428
歌詞	-9.73464
▁dina	-9.73637
”.	-9.73711
森林	-9.73775
kazuwan	-9.73928
itr	-9.741
它的	-9.74166
▁kuy	-9.74266
▁taranapaw	-9.7435
pakurelrang	-9.74578
trau	-9.74592
繞	-9.74781
的名字	-9.74831
回去	-9.74846
好了	-9.74868
傳統習俗	-9.7495
邊	-9.75161
et	-9.7534
故	-9.75738
ena	-9.75744
8	-9.75873
釣竿	-9.75893
▁pata	-9.76097
trang	-9.76097
比較	-9.76162
要準備	-9.76206
▁ai	-9.76224
年祭	-9.7631
的孩子	-9.76354
偷竊	-9.7639
senay	-9.76482
saya	-9.76561
kunu	-9.76675
9	-9.76683
semasaharan	-9.76692
唸	-9.76693
iturus	-9.767
▁para	-9.76758
aramawa	-9.76759
我將	-9.7676
▁mawan	-9.76846
每年	-9.76895
zu	-9.77253
aluzun	-9.77431
田裡	-9.77456
mulremes	-9.7751
些	-9.77563
▁vena	-9.77592
這位	-9.77982
halra	-9.78211
我很	-9.78271
pangasip	-9.78555
婦女	-9.78567
pakalrazam	-9.78593
mikakavung	-9.78719
dalreu	-9.78836
的衣服	-9.78994
tralutralun	-9.79062
Senayan	-9.79147
vay	-9.79165
Raranges	-9.7921
vetriliyan	-9.79247
Munay	-9.79259
maralrak	-9.7926
palakuwan	-9.79292
marekamelrimelri	-9.79302
Puyuma	-9.79304
kivulas	-9.79305
misama	-9.79307
salrangan	-9.79334
maderu	-9.7935
iyup	-9.79391
vasikaw	-9.79442
vurasi	-9.79483
atrevung	-9.7953
zuwaya	-9.79557
marelrang	-9.79595
pupana	-9.79621
kiyumalra	-9.7981
makiteng	-9.79882
sayhuwan	-9.79897
seme	-9.79995
氣	-9.80032
耆老	-9.80034
▁puka	-9.80153
員	-9.80371
獵	-9.8039
的卑南語	-9.80424
kaazu	-9.80554
▁v	-9.8056
▁kakuwa	-9.80639
▁trema	-9.8081
借我	-9.80835
kezet	-9.80859
tuki	-9.80865
跟隨	-9.80892
取名	-9.80935
坐在	-9.80948
三十	-9.81033
pazangal	-9.81075
ziya	-9.81108
情	-9.81127
rang	-9.8114
件	-9.81142
屋	-9.81177
多久	-9.81191
你是	-9.81209
muruma	-9.8133
首	-9.81338
數	-9.81512
祭	-9.81676
車	-9.81711
課	-9.81738
約	-9.81742
▁lralrang	-9.81742
視	-9.81748
早	-9.8175
晚	-9.818
見	-9.81811
下午	-9.8182
業	-9.81845
ngadan	-9.81847
他今年	-9.81894
換	-9.81931
假日	-9.81951
間	-9.81968
海	-9.81982
意義	-9.82003
我喜歡	-9.82004
ap	-9.82019
吟唱	-9.82022
社	-9.8203
餐	-9.8206
創作	-9.82149
蛋	-9.82155
搭公車	-9.8217
下次	-9.82179
算	-9.82187
辦	-9.82235
急	-9.8224
程	-9.82282
騎	-9.82289
知	-9.82299
▁ina	-9.82321
必	-9.82328
身體	-9.82341
祖靈	-9.82347
石	-9.8235
像是	-9.82356
稱	-9.82359
獻	-9.82361
持	-9.82365
抬上來	-9.82369
適合	-9.8238
▁mau	-9.82382
割	-9.82387
服	-9.82389
紅	-9.82391
白	-9.82392
顧	-9.82395
材	-9.82398
暗	-9.82406
戴	-9.82406
產	-9.82409
力	-9.82409
賓朗	-9.82411
洗	-9.82417
土	-9.82418
運	-9.8242
幫你	-9.82423
存	-9.82423
廣	-9.82424
實	-9.82424
隔	-9.82425
討論	-9.82428
巫術	-9.82432
項	-9.82432
較	-9.82433
喜	-9.82435
籃	-9.82436
精	-9.82436
初	-9.82436
雄	-9.82437
蛇	-9.82439
藤	-9.82439
展	-9.8244
護	-9.82441
牧	-9.82442
考	-9.82442
步	-9.82443
雙	-9.82444
鋪	-9.82444
義	-9.82445
乾	-9.82445
突然	-9.82445
摔	-9.82446
架	-9.82446
曬	-9.82446
章	-9.82446
碗	-9.82447
試	-9.82447
懷	-9.82448
舉辦	-9.82448
異	-9.82449
制	-9.8245
夫	-9.82451
靈	-9.82451
證	-9.82451
早期	-9.82451
蟲	-9.82451
腰	-9.82451
推	-9.82452
源	-9.82452
關係	-9.82452
清	-9.82452
舞蹈	-9.82452
治	-9.82453
大夥	-9.82453
鄰	-9.82453
耳	-9.82453
找尋	-9.82453
湯	-9.82453
保	-9.82454
勞	-9.82454
慶	-9.82454
&	-9.82454
亂	-9.82454
事宜	-9.82454
似	-9.82454
凡事	-9.82454
剪	-9.82454
懶	-9.82454
模	-9.82454
洋	-9.82454
混	-9.82454
竊盜	-9.82454
競賽	-9.82454
菜餚	-9.82454
警告	-9.82454
順	-9.82454
飛來飛去	-9.82454
豐富	-9.82454
q	-9.82454
修	-9.82454
勤	-9.82454
吼	-9.82454
咕	-9.82454
替	-9.82454
注意	-9.82454
陸森寶先生	-9.82454
夏天	-9.82454
那個那個鈴鐺發出響聲有裝扮的	-9.82454
鑰匙	-9.82454
dimikes	-9.82454
parepauwauwayaw	-9.82454
tarawiri	-9.82454
timiyakelru	-9.82454
uvalringay	-9.82454
varivariw	-9.82454
▁Penghu	-9.82454
▁Vutrulr	-9.82454
▁ikatratrau	-9.82454
▁maretrevung	-9.82454
乾淨	-9.82454
寄	-9.82454
小米鹹粥	-9.82454
幼	-9.82454
延續	-9.82454
新郎	-9.82454
牙	-9.82454
眼睛	-9.82454
禁忌	-9.82454
空心菜	-9.82454
舒服	-9.82454
蔥	-9.82454
計程車	-9.82454
跑得快	-9.82454
跛腳	-9.82454
踩	-9.82454
追	-9.82454
配偶	-9.82454
鎖	-9.82454
tarawalran	-9.82454
venilin	-9.82454
zenazenan	-9.82454
剝	-9.82454
妳	-9.82454
挖	-9.82454
掛	-9.82454
瘦	-9.82454
號碼	-9.82454
Lutiya	-9.82455
kinaraasa	-9.82455
mukaitrasan	-9.82455
下課了	-9.82455
刻	-9.82455
澆	-9.82455
灰	-9.82455
疼	-9.82455
盼望	-9.82455
細	-9.82455
踏	-9.82455
lralruwatr	-9.82455
takungkung	-9.82455
▁tinililran	-9.82455
今天老師要教大家	-9.82455
對不起	-9.82455
導	-9.82455
搭火車去臺東	-9.82455
醫生	-9.82455
份	-9.82455
內容	-9.82455
兩隻老虎	-9.82455
吹	-9.82455
救	-9.82455
汁	-9.82455
累	-9.82455
遷	-9.82455
邵族	-9.82455
kinamakitengan	-9.82455
▁kemiyanger	-9.82455
冬季	-9.82455
標記	-9.82455
▁Takaw	-9.82455
派	-9.82455
zemelengan	-9.82455
升	-9.82455
屋內	-9.82455
藝術	-9.82455
耳朵	-9.82455
雖然	-9.82455
kerutr	-9.82456
上山打獵	-9.82456
圖案	-9.82456
掃好了	-9.82456
撞擊	-9.82456
雷	-9.82456
沒問題	-9.82456
增加	-9.82456
堅固	-9.82456
▁kiyakarukarunan	-9.82456
聯合年祭	-9.82456
蝦	-9.82456
鈴鐺發出	-9.82456
季節	-9.82456
營	-9.82456
緣	-9.82456
結伴	-9.82456
醃肉	-9.82457
停止	-9.82457
泥土	-9.82457
鼻	-9.82458
拍照	-9.82458
歡喜	-9.82458
姑娘	-9.82458
往東邊	-9.82458
至女家	-9.82458
興建	-9.82458
emupiz	-9.82459
沒關係	-9.82459
決定	-9.8246
鐵鈴	-9.8246
戴花環	-9.8246
掃把	-9.8246
天氣有點	-9.8246
團結	-9.82461
atezanay	-9.82461
捕獵	-9.82462
這水果好	-9.82462
抬起來	-9.82463
帶領	-9.82463
播種	-9.82464
▁Sawawan	-9.82464
運動會	-9.82465
lruwang	-9.82465
夜晚	-9.82465
放假	-9.82466
udung	-9.82468
刺繡	-9.82468
公園	-9.82468
旅行	-9.82468
受傷	-9.82469
marulrazam	-9.8247
令人	-9.82471
經常	-9.82472
動物園	-9.82472
太陽出來了	-9.82472
kenama	-9.82473
男性	-9.82473
生存	-9.82473
▁maruni	-9.82475
器具	-9.82475
原先	-9.82475
戴帽子	-9.82476
表示	-9.82476
今天天氣	-9.82479
semukun	-9.8248
如此	-9.82481
mukedet	-9.82482
rakaz	-9.82485
▁kimazayazayar	-9.82485
共同	-9.82486
tralinga	-9.82492
一隻沒有	-9.82493
叫聲	-9.82496
▁pasirep	-9.82497
太貴了	-9.82498
為甚麼	-9.82499
永不	-9.825
中間	-9.82501
穿衣服	-9.82501
野外	-9.82505
拿出來	-9.82506
uda	-9.82506
關於	-9.82509
留下	-9.82509
接近	-9.82511
可能	-9.82514
國中	-9.82516
各自	-9.82516
那邊	-9.82516
等待	-9.82517
lawas	-9.82522
才能	-9.82523
農作物	-9.82523
命的	-9.82528
vakar	-9.8253
課程	-9.82531
kiruwaday	-9.82537
lumay	-9.82542
▁Tay	-9.8255
tematavur	-9.82554
木板	-9.82561
帶傘	-9.82566
一位	-9.82568
很快	-9.82572
利嘉部落	-9.8258
這種	-9.82589
penadang	-9.82595
▁pukasa	-9.82596
見面	-9.82596
muramawan	-9.82603
時代	-9.82609
請看	-9.82626
irupan	-9.82629
ungas	-9.8264
多吃	-9.82649
ulasaw	-9.8265
之前	-9.82658
我們去看	-9.82662
從小	-9.82662
怎麼辦	-9.82664
wakasayan	-9.8267
過年	-9.8267
未來	-9.82695
身上	-9.82696
tazaw	-9.82703
女孩	-9.82704
▁te	-9.82713
各部落	-9.82718
衣物	-9.82741
kinsas	-9.82776
kētēsiya	-9.82802
我是卑南族	-9.82846
他叫	-9.82849
▁vaw	-9.82852
kuwaravakan	-9.82865
祭儀	-9.8287
▁vuevu	-9.82873
幫	-9.82879
成人	-9.8288
marepakuwakuwa	-9.82881
▁usavak	-9.82898
▁kaningku	-9.82899
過來	-9.82911
▁wakalr	-9.82935
整個	-9.82942
kapazangalan	-9.82958
▁pakalrang	-9.82963
▁penana	-9.82974
puvalray	-9.82984
▁takilr	-9.83022
▁melranguya	-9.83024
▁kawkaw	-9.83039
▁pavilung	-9.83039
▁venavati	-9.83039
▁puwalumayan	-9.83041
▁marakazuwazuwan	-9.83042
▁temuwakutra	-9.83042
▁kuwarelrangan	-9.83096
ungetr	-9.83098
飯店	-9.83106
告訴	-9.83146
謝謝你	-9.83184
▁ikakuda	-9.8319
你叫	-9.83191
▁mikavang	-9.83193
▁valruvalruran	-9.83195
▁maulep	-9.83202
patikezir	-9.83208
紀念	-9.83214
kianun	-9.83215
▁dinawayan	-9.83233
做好	-9.83238
我叫	-9.83242
marevulavulas	-9.83255
我們美麗的	-9.83295
某物	-9.83311
的話	-9.83378
kapalisiyan	-9.83413
那是	-9.83437
rs	-9.83529
這樣的	-9.83529
生長	-9.83534
maylra	-9.83541
izir	-9.83551
了許多	-9.83666
我介紹	-9.83692
現在我	-9.83693
真是太	-9.83701
vunga	-9.83703
喜歡秋天	-9.83734
walu	-9.83766
▁niranger	-9.83774
▁kaygi	-9.83787
kulang	-9.83834
talrami	-9.8385
uninan	-9.83854
ti	-9.83871
▁pida	-9.83879
▁tiyalr	-9.83949
▁sadeku	-9.83965
▁sizumayan	-9.83968
▁makatelun	-9.83968
▁makapetelr	-9.83969
▁Tayyar	-9.8397
取得	-9.8397
▁kaseveran	-9.83972
▁mizidēnsiya	-9.84032
▁kituluz	-9.84035
認識你	-9.84047
hilr	-9.84087
的東西	-9.84179
隨著	-9.84247
▁dalikedik	-9.84259
各個	-9.8428
▁vulr	-9.84281
▁melak	-9.84338
-/	-9.84349
▁keravi	-9.84412
很好	-9.84459
▁raruma	-9.84552
▁kavung	-9.84553
▁papetrir	-9.84708
sasa	-9.84719
vinavalrayan	-9.84754
▁pitu	-9.84809
就在	-9.84815
▁demadaw	-9.84832
vak	-9.84863
在做什麼	-9.84873
▁penapitaw	-9.84928
▁munayun	-9.84955
珍貴的	-9.85003
一件	-9.85023
zanta	-9.85055
▁trungulran	-9.85067
leng	-9.85108
▁irupan	-9.8511
talikuzakuzan	-9.85177
前面	-9.85186
有兩個	-9.85256
歌謠	-9.85258
排灣族	-9.85325
maruwaruwa	-9.85345
▁niya	-9.85354
▁adawilr	-9.85394
marenem	-9.854
ēncumin	-9.85501
marametr	-9.85568
▁walu	-9.8568
頂帽子	-9.85862
kudakudayaw	-9.85866
▁Senayan	-9.85875
10	-9.85961
pitr	-9.85988
▁ikur	-9.86028
▁ngangara	-9.86074
去澎湖	-9.86274
kemaniya	-9.86302
還會	-9.86332
▁kaw	-9.86345
回答	-9.86387
是我們	-9.86415
▁manay	-9.8652
po	-9.86528
asa	-9.86574
帶回	-9.86805
攤	-9.86811
ru	-9.86855
▁tratr	-9.87028
sevang	-9.87095
了太陽	-9.87116
地上	-9.87122
vaveray	-9.87152
我吃了	-9.87175
空	-9.87276
▁panana	-9.87288
ede	-9.87316
人口	-9.87325
ninku	-9.87694
),	-9.87701
你會	-9.87944
你爸爸	-9.88264
借給	-9.88383
paveray	-9.88397
女人	-9.88473
marepa	-9.88494
▁temuwan	-9.88758
的部落	-9.88886
apat	-9.88958
西	-9.89203
的和	-9.89414
後面	-9.89482
▁Panay	-9.89704
的腳	-9.89902
先去	-9.89932
avu	-9.90074
uwaitras	-9.90176
lratar	-9.90263
raw	-9.90295
稍	-9.90608
▁kiumalr	-9.90686
我在家	-9.9073
muzaya	-9.90794
▁trem	-9.90846
成年禮	-9.90868
輕	-9.90895
▁sin	-9.91162
考驗	-9.91373
maka	-9.91456
抓到	-9.91547
▁kini	-9.91588
tripu	-9.91723
住在	-9.91796
tinu	-9.91894
rarengay	-9.91953
kure	-9.92043
▁puwalrang	-9.92166
muasalr	-9.92204
在部落的	-9.92414
3	-9.92436
▁paw	-9.92513
臺	-9.92527
iyo	-9.92528
▁patakesi	-9.92622
z	-9.92798
de	-9.92818
al	-9.92984
一個人	-9.93048
新的	-9.93091
▁kayan	-9.93169
並不	-9.93271
kemudaya	-9.93343
習俗	-9.93427
午	-9.93506
南王部落	-9.94084
itruli	-9.94604
v	-9.94631
semenan	-9.94845
▁l	-9.94871
我去	-9.94901
ngai	-9.94948
riw	-9.9505
tremi	-9.95097
他一	-9.95166
特別的	-9.95875
我們來	-9.9599
祈雨的	-9.96041
lan	-9.96241
ravak	-9.96296
這些	-9.96697
salr	-9.96774
造	-9.97159
下去	-9.97177
請問您	-9.97225
miturus	-9.97252
的水	-9.97449
▁kar	-9.97449
pe	-9.98031
牠	-9.9804
emu	-9.98233
便當	-9.98578
集	-9.98583
pan	-9.98668
kaw	-9.98777
san	-9.99051
urungan	-9.99157
pukapida	-9.99437
kuwa	-9.99478
很難	-9.99679
tuk	-9.99758
damuk	-9.99896
歡樂	-9.99937
工寮	-10.0012
看吧	-10.0018
yar	-10.0026
房間	-10.0037
看看	-10.005
suwan	-10.0056
he	-10.0072
馬智禮先生	-10.0093
mutrungutrungulr	-10.0109
兩種	-10.0124
有關	-10.0136
wari	-10.016
她是我的	-10.0182
她在	-10.0185
luwa	-10.0218
▁lu	-10.0255
mali	-10.0266
uwazuk	-10.0288
▁pena	-10.029
muelak	-10.0313
lrazam	-10.035
vuli	-10.0356
我們就	-10.0381
ing	-10.0492
檳榔	-10.0528
karuwayan	-10.0567
卑南語	-10.0586
ala	-10.0593
找你	-10.0617
▁pinieman	-10.0684
kananmu	-10.0685
kulr	-10.0714
▁Y	-10.0729
要求	-10.0751
asalr	-10.0775
▁tr	-10.0796
六十	-10.0809
原來	-10.081
ilran	-10.0843
人員	-10.0851
kuy	-10.0877
paru	-10.0897
了呢	-10.0908
真好	-10.0925
分鐘	-10.0928
▁pazangal	-10.0933
歡迎	-10.0942
的食物	-10.0979
小時候	-10.0987
iē	-10.0992
附近	-10.0995
好多	-10.1007
ames	-10.1012
ulas	-10.1015
教會	-10.1016
大學	-10.1018
semenay	-10.1021
▁talrima	-10.1024
田鼠	-10.1026
pazuwa	-10.1037
intaw	-10.1066
人家	-10.1073
ek	-10.1075
alrak	-10.1087
▁pina	-10.1089
▁puitras	-10.1098
家族	-10.1105
各式各樣	-10.1108
父親	-10.1118
▁puwazuk	-10.114
pazek	-10.114
lang	-10.1141
kipu	-10.1141
你要去	-10.1147
trungulran	-10.1148
▁Yē	-10.1148
ngal	-10.1152
sare	-10.1154
不可以	-10.1156
北	-10.1163
uruma	-10.1164
後天	-10.1168
vavayan	-10.1174
騎腳踏車	-10.1185
lrawlraw	-10.1205
ngaydiran	-10.1205
lralrak	-10.1208
kemakuda	-10.1211
trangis	-10.1213
takesiyan	-10.1217
塊	-10.1221
kadika	-10.1226
elr	-10.1228
puwari	-10.123
pavulas	-10.1231
門口	-10.1235
kadikaya	-10.1239
要去	-10.1239
zinekalranan	-10.1245
penapitaw	-10.1245
munayun	-10.1245
pali	-10.1247
mazayazayar	-10.125
Ulivelivek	-10.1252
kemuret	-10.1252
karauv	-10.1252
peniya	-10.1252
mamatras	-10.1254
pakangawayan	-10.1255
Tamalrakaw	-10.1255
捕	-10.1255
Payrang	-10.1256
melrivak	-10.1256
menadanadam	-10.1257
Masaw	-10.1257
anun	-10.1257
pakavulay	-10.1258
maziyazi	-10.1259
▁patrepa	-10.1262
kemakawang	-10.1262
varasa	-10.1268
lruwatra	-10.1272
記	-10.1273
muveruk	-10.1273
dalan	-10.1273
字	-10.1283
liveng	-10.1283
滿了	-10.1284
miya	-10.1284
春天	-10.1288
他們會	-10.1296
papetrir	-10.1298
parahan	-10.13
▁patulr	-10.13
古謠	-10.1301
12	-10.1305
兩個	-10.1313
▁mutuwa	-10.132
kiyakarunan	-10.133
vekal	-10.1333
azuwan	-10.1339
腐朽	-10.134
elaw	-10.136
▁vatu	-10.1378
2	-10.1378
nazu	-10.1384
patakesi	-10.139
▁demu	-10.1409
慢走	-10.1413
許多	-10.1415
的小米	-10.1424
ntaw	-10.143
▁kikulang	-10.1439
▁maira	-10.1448
哪	-10.1451
mapiya	-10.1465
方便	-10.1465
muni	-10.1468
念	-10.1469
有很多	-10.1471
太	-10.1476
dikes	-10.1477
成的	-10.1484
我的爸爸	-10.1487
▁atrevung	-10.1488
tiya	-10.15
打獵	-10.1502
整	-10.151
udar	-10.1512
英	-10.1515
僅	-10.1516
牆	-10.1517
漢	-10.1518
黑	-10.1524
卻	-10.1525
epetr	-10.1526
kap	-10.1529
隻	-10.153
舊	-10.1532
擁有	-10.1533
kemayan	-10.1533
厲害	-10.1533
心情	-10.1538
ez	-10.154
▁pure	-10.1541
飽	-10.1547
聊	-10.1548
覺得	-10.1549
總	-10.1551
搭	-10.1552
承	-10.1552
然	-10.1552
任何	-10.1554
mera	-10.1555
ezang	-10.1556
據	-10.1561
孫	-10.1561
職	-10.1561
▁lr	-10.1562
urelra	-10.1562
剛	-10.1563
vilin	-10.1563
九	-10.1564
懂	-10.1564
願	-10.1564
富	-10.1564
餵	-10.1565
爬	-10.1565
眾	-10.1565
emeva	-10.1565
射	-10.1566
驚	-10.1567
葉	-10.1567
鹿角	-10.1567
飾	-10.1567
觀	-10.1568
故事	-10.1568
收穫祭	-10.1568
許	-10.1568
提	-10.1568
凱旋門	-10.1568
斤	-10.1569
河	-10.1569
老闆	-10.1569
千	-10.157
達	-10.157
假	-10.157
特	-10.1571
致	-10.1572
柱	-10.1572
覺	-10.1572
甚麼	-10.1573
部	-10.1573
鋤	-10.1573
泰安部落的	-10.1573
交	-10.1573
片	-10.1573
蒸	-10.1574
溫暖	-10.1574
紀	-10.1574
瓜	-10.1575
婚	-10.1575
景	-10.1575
耕	-10.1575
樂	-10.1575
芋	-10.1575
料	-10.1575
藥	-10.1575
靠	-10.1575
鼠	-10.1575
嫁	-10.1575
透	-10.1575
震	-10.1575
烤	-10.1575
歡	-10.1576
藍	-10.1576
砍	-10.1576
抬	-10.1576
豆	-10.1576
環	-10.1576
錄影	-10.1576
搖	-10.1576
結	-10.1576
黃	-10.1577
冰箱	-10.1577
iyanava	-10.1577
茅草	-10.1577
床	-10.1577
滴	-10.1577
採	-10.1577
師	-10.1577
安	-10.1577
室	-10.1577
蹤	-10.1577
聞	-10.1577
醫院	-10.1577
隊	-10.1578
校	-10.1578
山豬	-10.1578
非	-10.1578
船	-10.1578
阿	-10.1578
折	-10.1578
湖	-10.1578
計	-10.1578
周	-10.1578
差	-10.1578
腳踏車	-10.1578
右	-10.1578
崩	-10.1578
左	-10.1578
度	-10.1578
仍	-10.1578
旁	-10.1578
摘	-10.1578
伴	-10.1578
醒	-10.1578
姑	-10.1578
祝你	-10.1578
巫	-10.1578
kudayaw	-10.1578
弓	-10.1578
濫	-10.1578
誤	-10.1578
娘	-10.1578
一般	-10.1578
引	-10.1578
碰	-10.1578
袖	-10.1579
滅	-10.1579
禍	-10.1579
逃	-10.1579
夾	-10.1579
論	-10.1579
溝	-10.1579
傍晚	-10.1579
包括	-10.1579
宿	-10.1579
巴	-10.1579
榮	-10.1579
燈	-10.1579
竹製水槍	-10.1579
組	-10.1579
裙	-10.1579
掌	-10.1579
臟	-10.1579
足	-10.1579
禁	-10.1579
羞	-10.1579
徵	-10.1579
嬰兒	-10.1579
巡視	-10.1579
庭院	-10.1579
扁	-10.1579
祝賀	-10.1579
連	-10.1579
頸	-10.1579
擬	-10.1579
祝福	-10.1579
積	-10.1579
貓	-10.1579
閱讀書寫篇	-10.1579
餘	-10.1579
好久不見	-10.1579
易	-10.1579
粒	-10.1579
遊	-10.1579
282	-10.1579
Ilin	-10.1579
Itran	-10.1579
Singkay	-10.1579
Yamamoto	-10.1579
aliwanes	-10.1579
aremeremeng	-10.1579
atrengalran	-10.1579
elralresap	-10.1579
gaykok	-10.1579
katupaydiyan	-10.1579
kinuwarelrangan	-10.1579
marehereher	-10.1579
marepuwalraalrang	-10.1579
masikasik	-10.1579
pukalruwatr	-10.1579
pulusulusuwaw	-10.1579
tinareawatr	-10.1579
valruvalrulren	-10.1579
vetreker	-10.1579
yuvingkiyok	-10.1579
zemangzang	-10.1579
▁Indonisia	-10.1579
▁kangkang	-10.1579
▁pinutremelan	-10.1579
▁trapingiran	-10.1579
▁vinavatiyan	-10.1579
▁wadadiyan	-10.1579
▁我叫你一聲	-10.1579
丈	-10.1579
乘涼	-10.1579
佳	-10.1579
依賴	-10.1579
冬天	-10.1579
包裹	-10.1579
吐	-10.1579
嗚	-10.1579
嘴	-10.1579
嚇	-10.1579
外省人	-10.1579
奇怪	-10.1579
女婿	-10.1579
娶	-10.1579
守	-10.1579
山羌	-10.1579
平埔	-10.1579
彩虹	-10.1579
恨	-10.1579
惰	-10.1579
慶祝	-10.1579
我忘記帶錢了	-10.1579
拐	-10.1579
捉	-10.1579
掘	-10.1579
握	-10.1579
搭高鐵去高雄	-10.1579
撥	-10.1579
暈	-10.1579
曲	-10.1579
枝	-10.1579
權利	-10.1579
涼快	-10.1579
減	-10.1579
渴	-10.1579
猴	-10.1579
甘	-10.1579
生殖器	-10.1579
甲	-10.1579
疊	-10.1579
癢	-10.1579
祈求	-10.1579
票	-10.1579
穿敞褲片	-10.1579
窩	-10.1579
箭	-10.1579
粉	-10.1579
紛	-10.1579
素	-10.1579
耀	-10.1579
老師要帶我們去	-10.1579
老鷹	-10.1579
腿	-10.1579
臥	-10.1579
苧麻	-10.1579
菸	-10.1579
裂	-10.1579
遍	-10.1579
邀約	-10.1579
郵局	-10.1579
醉	-10.1579
釣魚	-10.1579
長高了	-10.1579
防	-10.1579
陷	-10.1579
顏色	-10.1579
高麗菜	-10.1579
魂	-10.1579
魚筌	-10.1579
麻糬	-10.1579
麼辦呢	-10.1579
keraravi	-10.1579
pinikatringan	-10.1579
現在我要稱呼誰	-10.1579
綠	-10.1579
matungatung	-10.1579
tikelruwan	-10.1579
warekesan	-10.1579
▁kosi	-10.1579
▁lramlram	-10.1579
凝聚	-10.1579
刮	-10.1579
夏天會很熱	-10.1579
痠	-10.1579
盤	-10.1579
賽德克族	-10.1579
Tayping	-10.1579
iselay	-10.1579
minanatray	-10.1579
temuhus	-10.1579
粗	-10.1579
kirekalrazam	-10.1579
uwatrepu	-10.1579
zemelretr	-10.1579
所謂	-10.1579
煙	-10.1579
針	-10.1579
髒	-10.1579
kawniyu	-10.1579
南方	-10.1579
咱們	-10.1579
暑假	-10.1579
靜	-10.1579
鞦韆下的	-10.1579
malrualru	-10.1579
▁Sanasan	-10.1579
▁patraliku	-10.1579
福音	-10.1579
patrutru	-10.1579
tinaveras	-10.1579
人士	-10.1579
伐	-10.1579
俯	-10.1579
價	-10.1579
吞	-10.1579
在都市	-10.1579
大自然	-10.1579
家家戶戶	-10.1579
底	-10.1579
忙碌	-10.1579
憂	-10.1579
搶奪	-10.1579
斜	-10.1579
普遍	-10.1579
樑	-10.1579
清掃	-10.1579
相距不遠	-10.1579
石壓式陷阱	-10.1579
訂	-10.1579
詛咒	-10.1579
跡	-10.1579
速	-10.1579
遊客	-10.1579
陶	-10.1579
kimirakaz	-10.1579
太魯閣族	-10.1579
專程	-10.1579
花環	-10.1579
鋼琴	-10.1579
saringan	-10.1579
呈現	-10.1579
孩童	-10.1579
窗戶	-10.1579
抱歉	-10.1579
Danadanaw	-10.1579
Ising	-10.1579
lupas	-10.1579
temateha	-10.1579
vangko	-10.1579
哈	-10.1579
均	-10.1579
報	-10.1579
攪	-10.1579
日據時期	-10.1579
木臼	-10.1579
橫樑	-10.1579
欣賞	-10.1579
灶	-10.1579
研	-10.1579
竹筒	-10.1579
萬	-10.1579
遺	-10.1579
里	-10.1579
陸	-10.1579
鞦韆上的	-10.1579
餅乾	-10.1579
▁unaunan	-10.1579
清朝	-10.1579
alengatr	-10.1579
繼	-10.1579
dukel	-10.1579
lidam	-10.1579
saninin	-10.1579
▁kinivulas	-10.1579
標準	-10.1579
烏	-10.1579
祭司及巫師首領	-10.1579
簡單	-10.1579
足夠	-10.1579
piciyu	-10.1579
禁止	-10.1579
穿插	-10.1579
舅舅	-10.1579
迷失	-10.1579
Taluku	-10.1579
回復	-10.1579
客家人	-10.1579
尋找	-10.1579
挑選	-10.1579
籠	-10.1579
糯米糕	-10.1579
綁	-10.1579
習慣	-10.1579
階段	-10.1579
麥	-10.1579
麻雀	-10.1579
▁pinazek	-10.1579
魚簍	-10.1579
吸引	-10.1579
弟妹	-10.1579
列隊	-10.1579
硬	-10.1579
觸碰	-10.1579
調	-10.1579
迎接	-10.1579
位置	-10.1579
asiru	-10.1579
仍然	-10.1579
熱鬧	-10.1579
盡量	-10.1579
逐	-10.1579
除喪	-10.1579
inavel	-10.1579
推舉	-10.1579
保障原住民族	-10.1579
信仰	-10.1579
參考	-10.1579
持續	-10.1579
環境	-10.1579
腰鈴	-10.1579
sulrasulray	-10.1579
提醒	-10.1579
▁dineru	-10.1579
晃動	-10.1579
kamangulr	-10.1579
屎	-10.1579
承襲	-10.1579
獵得獵物	-10.1579
聚會所	-10.1579
編織	-10.1579
呂家望	-10.1579
生命	-10.1579
一隻	-10.1579
半夜	-10.1579
天氣很熱	-10.1579
石碑	-10.1579
黑巫術	-10.1579
▁penetrir	-10.1579
我的腳好	-10.1579
快進來	-10.1579
隨意	-10.1579
黑暗	-10.1579
飛機	-10.1579
▁parepuwan	-10.1579
一個小時	-10.1579
meling	-10.1579
右邊	-10.1579
吟唱古謠	-10.1579
左邊	-10.1579
背負	-10.1579
能夠	-10.1579
超過	-10.1579
歸還	-10.158
katruk	-10.158
執行	-10.158
melalehetr	-10.158
周圍	-10.158
安排	-10.158
正確	-10.158
adeng	-10.158
強壯	-10.158
規定	-10.158
依然	-10.158
從事什麼	-10.158
排隊	-10.158
照片	-10.158
白巫術	-10.158
搭建	-10.158
這支	-10.158
內心	-10.158
掃地	-10.158
賣完了	-10.158
產業	-10.158
飲酒	-10.158
對象	-10.158
意願	-10.158
釀酒	-10.158
這是山豬	-10.158
集合	-10.158
pakanumaw	-10.158
我可以借你的	-10.158
pinaruzang	-10.158
▁ngiw	-10.158
白米	-10.158
吃吃看	-10.158
大聲一點	-10.158
雙方	-10.158
領唱	-10.158
▁inevel	-10.158
izel	-10.158
melalavat	-10.158
間斷	-10.158
有什麼事	-10.158
unmē	-10.158
lipad	-10.158
摔角	-10.158
獨自	-10.158
法律	-10.158
獵刀	-10.158
deruwan	-10.158
村民	-10.158
返回	-10.158
禮拜	-10.158
火車	-10.158
約定	-10.158
杯子	-10.158
至今	-10.158
期待	-10.158
美味	-10.158
乳牛	-10.1581
為主	-10.1581
pinakapazangal	-10.1581
平原	-10.1581
力量	-10.1581
同情	-10.1581
蛇類	-10.1581
一隻鳥	-10.1581
命名	-10.1581
更加	-10.1581
長者	-10.1581
越來越少	-10.1581
影	-10.1581
角落	-10.1581
參與	-10.1581
一瓶	-10.1581
爭戰	-10.1581
客人	-10.1581
何時	-10.1581
形狀	-10.1581
inuwauwayan	-10.1581
完全	-10.1581
拿出你的	-10.1581
singsing	-10.1581
身材	-10.1581
出去玩	-10.1581
母親	-10.1582
難道	-10.1582
▁vinayaw	-10.1582
敵人	-10.1582
有三個	-10.1582
各項	-10.1582
白色	-10.1582
眾多	-10.1582
通常	-10.1582
想念	-10.1582
其實	-10.1582
重量	-10.1582
山豬肉	-10.1582
從此	-10.1582
稻草	-10.1582
每個	-10.1582
▁ulepan	-10.1582
tanuvan	-10.1582
深夜	-10.1582
失火	-10.1582
嫁給	-10.1582
不夠	-10.1582
立即	-10.1582
兩次	-10.1582
這是誰的	-10.1582
pangkiyu	-10.1582
我們買了	-10.1582
懂得	-10.1582
願意	-10.1583
醫治	-10.1583
牛隻	-10.1583
身高	-10.1583
▁temariya	-10.1583
幫我拿	-10.1583
耕地	-10.1583
外祖母	-10.1583
這個假日	-10.1583
收入	-10.1583
鋤頭	-10.1583
吃看看	-10.1583
起立	-10.1583
行程	-10.1583
外國	-10.1583
妻子	-10.1584
合作	-10.1584
上班	-10.1584
同學們	-10.1584
道理	-10.1584
▁muturahan	-10.1584
一間	-10.1584
成熟	-10.1584
▁muwazangi	-10.1584
▁pituwa	-10.1584
陷阱抓	-10.1584
三歲時	-10.1585
繡法	-10.1585
當然	-10.1585
日本話	-10.1585
尊重	-10.1585
下賓朗	-10.1585
遲到了	-10.1585
雨停了	-10.1585
九年	-10.1585
抓魚	-10.1585
禮物	-10.1585
kinasahasahar	-10.1585
你怎麼知道	-10.1585
發生	-10.1585
lutung	-10.1586
ilring	-10.1586
流利	-10.1586
通過	-10.1586
人治病	-10.1586
請給我	-10.1586
親屬	-10.1586
葉子	-10.1586
花生	-10.1587
國家	-10.1587
女兒	-10.1587
公分	-10.1587
各種	-10.1587
還有很多	-10.1588
在古時候	-10.1588
▁matez	-10.1588
一起去打獵	-10.1588
幾天	-10.1588
▁marekamelri	-10.1588
孩子們	-10.1588
可憐的	-10.1588
aselr	-10.1588
作品	-10.1588
trekipan	-10.1589
急著	-10.1589
喝酒	-10.1589
那裡有	-10.1589
生病	-10.1589
kituluzaw	-10.1589
不懂	-10.1591
祖先們	-10.1591
小狗	-10.1591
動作	-10.1591
他會說	-10.1591
▁travak	-10.1592
你是不是	-10.1592
▁pinitra	-10.1592
新年	-10.1592
路口	-10.1592
▁makawang	-10.1593
inevang	-10.1593
原住民文化	-10.1593
一條	-10.1593
關上	-10.1594
一層	-10.1594
為卑南族人	-10.1594
penapetrir	-10.1594
剛好	-10.1594
請教	-10.1594
一個月	-10.1594
▁:	-10.1595
我天天	-10.1595
時必	-10.1595
大聲	-10.1595
女生	-10.1596
即將	-10.1596
胖了	-10.1596
一個一個	-10.1597
有些	-10.1597
▁ukak	-10.1598
paku	-10.1598
地叫	-10.1598
▁rengai	-10.1598
很快就	-10.1599
▁mizanum	-10.1599
竹子	-10.16
別人	-10.16
kiyalrimayan	-10.16
看起來	-10.1602
▁nirengay	-10.1602
山地	-10.1602
之處	-10.1602
emuy	-10.1602
探訪親友	-10.1602
Aruma	-10.1603
一同	-10.1603
和家人	-10.1603
一下子	-10.1604
makaiwa	-10.1604
我的橡皮擦	-10.1604
蓋房子	-10.1604
其中	-10.1605
年長	-10.1607
那天	-10.1608
心想	-10.1608
歲時	-10.1609
sakura	-10.161
marekanadam	-10.161
▁penalisiya	-10.161
三年	-10.1611
pilra	-10.1611
我的媽媽	-10.1611
dawadawan	-10.1612
一生	-10.1614
裝有	-10.1618
pasenan	-10.1618
蘭嶼	-10.162
男家	-10.1621
個人	-10.1622
▁nanema	-10.1622
下次再	-10.1623
過後	-10.1623
pulihu	-10.1623
只好	-10.1623
mutu	-10.1626
uwasavakan	-10.1626
我們一起去	-10.1626
saliyusan	-10.1628
我問他	-10.1628
esi	-10.1628
做為	-10.163
我開車去	-10.163
請問有	-10.163
女用	-10.1631
若有	-10.1631
▁isalem	-10.1632
等等	-10.1634
inlrangan	-10.1634
出去	-10.1634
nga	-10.1637
男用	-10.1639
大意	-10.164
了解	-10.1642
▁tremuwa	-10.1643
借你	-10.1645
哪兒	-10.1646
好處	-10.1648
變了	-10.165
marekamianger	-10.165
由來	-10.1652
要多	-10.1652
其他	-10.1653
不過	-10.1654
▁kuwi	-10.1656
▁temalaulep	-10.1658
luvitr	-10.1658
山腳下	-10.1658
農具	-10.1659
想到	-10.1659
利嘉村	-10.166
▁uzazangiyan	-10.166
▁kenaw	-10.1661
我等一下	-10.1662
pavaliyan	-10.1662
▁kadumu	-10.1662
palavat	-10.1662
▁kakayanan	-10.1662
▁kudumu	-10.1662
▁liyokang	-10.1662
▁pinarahanan	-10.1662
▁kayakay	-10.1662
▁daygak	-10.1662
▁koyēng	-10.1662
▁Paywan	-10.1662
▁piyano	-10.1662
▁matengetengez	-10.1663
▁satraliyan	-10.1663
▁sayarawang	-10.1663
▁kinitralunan	-10.1663
▁piningayiyan	-10.1663
▁pidawariyan	-10.1663
▁kinayanan	-10.1664
▁pinupana	-10.1664
▁puwatremel	-10.1664
謝謝你的	-10.1665
ve	-10.1666
▁paliyuliyus	-10.1667
▁puzanum	-10.1667
▁kasahasahar	-10.1667
▁muzangizangi	-10.1667
▁Saw	-10.1667
那裡的	-10.1668
▁pukazuwa	-10.167
完了	-10.1671
pat	-10.1674
玩了	-10.1674
inutrungulran	-10.1674
地名	-10.1674
▁kavangavangan	-10.1674
請說	-10.1675
▁valru	-10.1676
但是他	-10.1677
inaku	-10.1677
失去	-10.1677
每天要	-10.1678
有點	-10.1679
vitr	-10.168
▁pakarun	-10.1681
▁sasenayan	-10.1685
▁suru	-10.1689
▁妹	-10.1691
▁tatusuk	-10.1692
kinaira	-10.1696
matikezir	-10.1697
你的家	-10.17
你哥哥	-10.1703
下雨了	-10.1707
▁paresaresan	-10.1709
大的	-10.1709
▁auwayan	-10.1711
會說卑南語	-10.1712
後來	-10.1715
你有	-10.1716
當時	-10.1716
dulu	-10.1717
makalrang	-10.172
paret	-10.1721
maraatras	-10.1722
▁mapiyapiya	-10.1723
不用	-10.1725
ev	-10.1725
Aki	-10.1725
▁harang	-10.1725
上衣	-10.1728
在巴拉冠	-10.1731
很高	-10.1733
▁taver	-10.1734
有哪些	-10.1735
pupatraran	-10.1737
padingwa	-10.1738
kipuwalrang	-10.1743
kureturus	-10.1744
是由	-10.1745
sasing	-10.1745
kasayan	-10.1746
nirukezang	-10.1746
看到你	-10.1748
慢慢	-10.1748
kerevatr	-10.175
生的	-10.1752
▁padu	-10.1754
每天都	-10.1755
▁vangsar	-10.176
nadam	-10.176
▁aidap	-10.1763
tuwap	-10.1763
每一個	-10.1764
!”	-10.177
elep	-10.1771
etrir	-10.1773
daway	-10.1775
種的	-10.1777
一把	-10.178
▁年輕的	-10.1782
▁matatengez	-10.1782
ep	-10.1782
▁aitrulan	-10.1785
pitaw	-10.1788
▁sawail	-10.1797
▁mudingan	-10.1798
▁demaulr	-10.1798
▁marukezang	-10.18
uwavaawan	-10.1801
▁姊	-10.1801
▁parekazuwa	-10.1802
不容易	-10.1802
kalikeliked	-10.1803
用的	-10.1806
▁patra	-10.1806
▁kaysing	-10.1807
lraput	-10.1807
▁kasemangalan	-10.1809
raruma	-10.1813
好吧	-10.1814
▁sudang	-10.1818
的生活	-10.1823
▁kiza	-10.1823
吃了	-10.1827
學校的	-10.1832
圍坐	-10.1837
▁nirangeran	-10.1841
emami	-10.1844
▁kemata	-10.1844
ngara	-10.1861
ri	-10.1861
▁vaaw	-10.1864
我們在	-10.1867
買兩瓶	-10.1871
▁mē	-10.1875
往東	-10.1898
enun	-10.1902
的傳統	-10.1903
做成	-10.1909
他說	-10.1912
事件	-10.1926
▁mawmaw	-10.1927
▁savakan	-10.1938
使用	-10.1942
▁trin	-10.1946
行為	-10.1947
一塊	-10.195
▁5	-10.1954
▁mukuwatreng	-10.1955
你真	-10.1956
▁kazuwa	-10.1956
來買	-10.1956
▁mamatras	-10.1962
tate	-10.1964
savak	-10.1975
vir	-10.1977
幾年	-10.1985
▁pinare	-10.1995
來吧	-10.1997
分享給	-10.2004
verayanay	-10.2013
裡面	-10.2015
valis	-10.2019
▁musavaka	-10.2028
apuy	-10.2053
puwazukaw	-10.2056
▁tralutralun	-10.2071
eta	-10.2073
」(	-10.2075
我想要	-10.2077
velr	-10.2082
▁pangasip	-10.2083
te	-10.2084
▁makutr	-10.2084
回部落	-10.2085
聽說	-10.2094
atrevungay	-10.2096
kunamun	-10.2111
▁ziki	-10.2115
itra	-10.2117
還你	-10.2121
emak	-10.2132
▁mal	-10.2137
pur	-10.2145
vuwan	-10.2145
部落婦女	-10.2147
▁kureta	-10.2151
豐盛的	-10.2158
▁melri	-10.2161
▁seme	-10.2173
▁kalrazama	-10.2178
這一	-10.2193
去教會	-10.2201
▁hu	-10.2221
一種	-10.2223
matras	-10.2227
人的	-10.223
一天	-10.2233
6.	-10.2253
十分鐘	-10.2277
很遠	-10.228
或是	-10.2283
▁kikaruna	-10.2285
era	-10.2287
usa	-10.2294
sinsiyan	-10.2296
▁puwaya	-10.2297
▁unan	-10.2309
sev	-10.2312
par	-10.2313
有的	-10.2313
的建築	-10.2321
kemaaluzun	-10.2322
是警察	-10.2329
有工作	-10.2368
▁halra	-10.2383
rami	-10.2384
網路	-10.2392
他的名字	-10.2404
▁tra	-10.2407
enin	-10.2411
唸一	-10.2439
tevtev	-10.2442
▁pen	-10.2449
dep	-10.2451
▁Li	-10.2457
kun	-10.246
▁kuwa	-10.2465
iwa	-10.2479
▁6	-10.2486
ipatez	-10.25
siyak	-10.25
親家	-10.2502
▁sema	-10.2516
原住民族有	-10.2517
但我	-10.2529
puyung	-10.2533
我們的語言	-10.2537
請坐	-10.2537
美麗的	-10.2537
vulr	-10.2541
回來的	-10.2559
engan	-10.2568
三位	-10.2573
▁re	-10.2586
alrupa	-10.2603
aekanan	-10.2608
▁kas	-10.2619
其他人	-10.2626
lrus	-10.2634
vet	-10.2659
加入	-10.2684
的地	-10.2688
vulas	-10.2692
semunan	-10.2696
就把	-10.2698
ilrasez	-10.2703
▁marekazuwa	-10.2705
kaniziyu	-10.2707
此	-10.2745
的傳統文化	-10.2771
之後才	-10.2783
要去看	-10.286
atring	-10.2867
ranger	-10.2896
親友的	-10.2903
paturu	-10.2918
是個	-10.2918
lapus	-10.294
長期	-10.2973
ar	-10.2978
有五個	-10.299
d	-10.3001
你要買幾	-10.3031
ven	-10.3035
▁pinu	-10.3038
▁semiya	-10.306
lranguy	-10.3064
ziyu	-10.3076
的是	-10.3079
ves	-10.3087
vaawan	-10.3094
得很好	-10.3106
A	-10.3109
kin	-10.3114
uk	-10.3146
katra	-10.3182
也不	-10.3184
我哥哥	-10.3196
00	-10.3203
功	-10.3219
▁kure	-10.3219
kaulep	-10.3233
民	-10.3233
zuma	-10.324
不同的	-10.3245
susu	-10.3262
▁lritek	-10.3274
kan	-10.328
的祭祀	-10.3295
日子	-10.3355
▁tuwa	-10.3366
▁bi	-10.3383
還給	-10.3384
搭船	-10.3409
▁sal	-10.3426
kakezang	-10.3428
幾歲	-10.3447
亮	-10.3457
iyaw	-10.3467
kes	-10.3471
semangalaw	-10.3477
別的	-10.3501
要比賽	-10.3512
etr	-10.3518
zaya	-10.3544
搭火車	-10.3547
麻煩	-10.355
kuz	-10.3605
植物	-10.3608
talram	-10.3609
ukasa	-10.3613
往南邊	-10.3623
下來	-10.366
nadaman	-10.3684
pit	-10.3689
你喜歡	-10.3693
0	-10.3699
▁urung	-10.3716
優美	-10.3716
之後就	-10.3721
trungulr	-10.3738
偏名	-10.3739
sek	-10.3748
▁maresa	-10.375
pitu	-10.3787
kal	-10.382
▁sede	-10.3827
kayta	-10.3833
植物的	-10.3872
圖	-10.388
zung	-10.3895
是我的朋友	-10.39
來看	-10.3913
temare	-10.3926
kuwang	-10.3933
很甜	-10.396
台	-10.3978
請你	-10.3991
太平	-10.3992
▁iturus	-10.4014
temu	-10.4033
吃什麼	-10.4038
的臺灣	-10.4041
特別	-10.4061
▁kadikaya	-10.4078
azuk	-10.4087
pung	-10.4141
▁mupa	-10.4175
hi	-10.4183
kuwadakuda	-10.4187
得我頭好	-10.4196
vang	-10.4224
很好吃	-10.423
母輩	-10.4255
imaran	-10.4272
星期幾	-10.4275
▁ven	-10.4277
的日子	-10.4284
tawar	-10.4378
elrep	-10.4427
!」,	-10.4432
錶	-10.4433
me	-10.4436
的習俗	-10.4446
merawaka	-10.4455
mawziya	-10.4493
lralr	-10.4511
變得	-10.4512
tem	-10.4529
kina	-10.4534
arenag	-10.4543
▁mera	-10.4569
savakan	-10.4579
要來	-10.4582
uz	-10.4593
臺東	-10.4603
鉛筆	-10.4621
我們獵到	-10.4624
ureha	-10.465
relrang	-10.4655
台灣的	-10.4661
一人	-10.4662
不斷	-10.4693
和好	-10.4709
trulr	-10.4715
他人獵場	-10.4717
就要	-10.4719
sang	-10.4756
13	-10.4811
開心	-10.4826
miip	-10.4829
也會	-10.4851
我也	-10.4852
triyur	-10.4856
sama	-10.4874
....	-10.4879
父	-10.4888
ilri	-10.4899
avuli	-10.4901
有名	-10.4906
沒	-10.491
melri	-10.4933
我還	-10.4966
我說	-10.4966
asavak	-10.4969
剩下	-10.4979
▁talaulep	-10.4983
我要吃	-10.4983
出門	-10.4987
▁ru	-10.4998
再加	-10.5011
會說	-10.5013
要穿	-10.5017
一直	-10.5018
另一	-10.503
uti	-10.5035
的家	-10.5064
可以去	-10.5071
稱呼你	-10.5084
請把	-10.5098
有一位	-10.5105
asan	-10.5116
這麼多	-10.5164
▁kuwaleng	-10.5221
trekel	-10.5243
▁7	-10.5265
東縣	-10.5269
我們到	-10.5273
將我們的	-10.5273
你們有	-10.5287
▁L	-10.5289
共有	-10.5311
到台北	-10.5323
kavang	-10.5334
我不好	-10.5344
ayaran	-10.5362
今	-10.5362
會一起	-10.5371
來的	-10.5375
yay	-10.5387
動物的	-10.5417
dang	-10.5421
sar	-10.5449
harang	-10.5462
▁puwalranga	-10.5484
isan	-10.5506
sudang	-10.5514
timu	-10.5523
老闆說	-10.5526
valray	-10.5533
▁paadang	-10.5545
mip	-10.5547
四個	-10.5549
是族人	-10.5563
zanum	-10.5569
tratr	-10.5579
ikur	-10.5604
▁Ha	-10.5607
▁wawa	-10.5633
要回家	-10.5649
▁sakuz	-10.5653
▁T	-10.5681
家鄉	-10.5682
店	-10.5689
likeliked	-10.5692
我們卑南族	-10.5698
趕	-10.5698
我們快	-10.5701
dara	-10.5706
patraran	-10.5723
gi	-10.5729
uraw	-10.5737
答	-10.5737
幾個	-10.5763
西邊	-10.5764
adawan	-10.5769
十一	-10.5773
iyusan	-10.5778
田裡的	-10.5809
由部落	-10.5823
未曾	-10.5831
讓他們	-10.5841
這頂	-10.5846
容易	-10.5849
mawan	-10.585
nannu	-10.585
在家等	-10.5858
一千	-10.5861
變成	-10.5875
軍	-10.5881
lusu	-10.5882
akuzulr	-10.5891
uta	-10.5915
kak	-10.5917
回去了	-10.5933
dingwa	-10.5957
往西	-10.5962
puy	-10.5965
sung	-10.5967
inmu	-10.5977
likuzakuzan	-10.599
我要買一	-10.5993
U	-10.5999
經驗	-10.5999
19	-10.6005
evuwa	-10.6015
檢查	-10.6015
錯	-10.6024
mika	-10.6037
mutra	-10.6042
祖	-10.6045
五個	-10.6062
都沒有	-10.6073
說族語	-10.6084
dalikedik	-10.6087
一切	-10.6087
的菜	-10.609
有摩托車	-10.6101
珍貴	-10.6102
她是	-10.6104
哪一個	-10.6105
年來	-10.6121
帶著	-10.6131
talaulep	-10.6133
的農	-10.6139
el	-10.6141
kavung	-10.6146
isi	-10.6149
我的陷阱	-10.6153
revu	-10.6153
▁pakunamun	-10.6153
temuwan	-10.6155
Pinuyumayan	-10.6157
出生的	-10.6161
怎麼了	-10.6182
kalramalraman	-10.6183
的路	-10.6185
箴言	-10.6185
inu	-10.6197
kureseleva	-10.6199
temakakesi	-10.6199
pakiwalay	-10.62
Kasang	-10.62
venasivas	-10.62
ho	-10.6201
Salrevaw	-10.6201
Ingvilr	-10.6201
tēgami	-10.6201
siawasē	-10.6201
Avarang	-10.6202
wadi	-10.6202
tevu	-10.6205
▁elaka	-10.6208
singkay	-10.6211
keravi	-10.6211
kituluz	-10.6212
niranger	-10.6213
paisu	-10.622
倉庫	-10.6227
marukezang	-10.6228
demaulr	-10.623
mudingan	-10.623
parekazuwa	-10.6231
sawail	-10.6232
vangsar	-10.6236
kasemangalan	-10.6238
ut	-10.624
kiretrevung	-10.624
kaysing	-10.624
kaseveran	-10.6242
makapetelr	-10.6243
makatelun	-10.6243
sizumayan	-10.6243
Tayyar	-10.6243
sadeku	-10.6244
vulavulayan	-10.6244
mizidēnsiya	-10.6245
kahuwahuwan	-10.6248
talraviyaw	-10.6248
zemiyar	-10.6249
Dipung	-10.6249
merengay	-10.6249
女方家	-10.6249
Bunun	-10.625
Angis	-10.625
tiyalr	-10.625
punapunan	-10.6251
inupanayan	-10.6251
pinivalrayan	-10.6251
pavekas	-10.6252
maruwadiyadi	-10.6252
dadaman	-10.6253
zinanuman	-10.6253
likulraw	-10.6253
talupung	-10.6253
katalaulepan	-10.6254
kinazuwan	-10.6254
humulr	-10.6254
demeru	-10.6254
minatray	-10.6254
kikarun	-10.6255
lralrivuwan	-10.6255
menaniwan	-10.6256
vavuy	-10.6257
sēhu	-10.6257
pinarahan	-10.6257
siyataw	-10.6258
ngidiran	-10.6259
wayway	-10.626
sanadaman	-10.626
matatengez	-10.6261
▁kem	-10.6261
tratrepa	-10.6264
mupatraran	-10.6265
mingadan	-10.6265
derun	-10.6266
raredek	-10.6267
mudaway	-10.6267
kirepa	-10.6268
tingting	-10.6269
zazuwa	-10.6269
waw	-10.627
walru	-10.6276
pavulasay	-10.6278
paduk	-10.6279
kakiyas	-10.6282
uwayan	-10.6284
pungadan	-10.6285
回憶	-10.6287
友	-10.6287
kaygi	-10.6289
pamelri	-10.6289
trungutrungulran	-10.6289
▁kunu	-10.629
nirangeran	-10.629
那裡	-10.6293
▁paru	-10.63
kadaw	-10.6304
年人	-10.6304
adawilr	-10.6304
▁kerevat	-10.6306
aramawana	-10.6306
出生	-10.6308
15	-10.6308
upu	-10.6308
kaziyu	-10.6311
kannu	-10.6318
trinun	-10.6324
semangalan	-10.6326
有一些	-10.6327
好笑	-10.6327
什麼樣的	-10.634
活	-10.6342
來找	-10.6345
pina	-10.635
害	-10.6359
現在的	-10.636
ringring	-10.636
tup	-10.6368
是大	-10.6369
向上	-10.6379
▁marekasa	-10.638
▁hareman	-10.639
imar	-10.6397
akanan	-10.6399
vung	-10.6402
kiyumalr	-10.6402
狩獵的	-10.6402
aruwa	-10.6411
到山	-10.6412
azukan	-10.6413
習	-10.6417
▁kazazuwa	-10.6422
maresa	-10.6432
東	-10.6432
mavu	-10.6433
▁melrangulranguy	-10.6434
lrangan	-10.6434
通知	-10.6437
興	-10.6438
semasa	-10.6438
入贅	-10.6444
ezeng	-10.6448
記得	-10.6449
zenan	-10.645
paekan	-10.6452
腳下	-10.6473
房子	-10.6473
dawa	-10.6479
mavul	-10.648
現	-10.6487
temavu	-10.6495
▁kirepa	-10.6497
vulavulas	-10.6498
阿美族	-10.6499
emalrup	-10.6502
saruma	-10.6503
katr	-10.6504
現象	-10.6508
的外套	-10.6508
壯	-10.651
的毛	-10.6515
半	-10.6516
嚴格	-10.6518
黃色	-10.6521
▁sayh	-10.6525
mayan	-10.6525
隨	-10.6526
言	-10.6531
音樂	-10.6532
現代	-10.6533
勇士	-10.6533
範圍	-10.6533
棄	-10.6537
remur	-10.6538
探訪	-10.654
tuvang	-10.6542
ze	-10.6542
utilr	-10.6543
掃完	-10.6543
areka	-10.6545
極	-10.6547
興趣	-10.6547
喚	-10.6547
結束	-10.6548
uturik	-10.6548
傘	-10.6549
泰安部落	-10.6549
滿	-10.6549
謝	-10.655
胖	-10.655
幸	-10.655
什麼時候	-10.6552
屬	-10.6554
丟	-10.6555
太太	-10.6557
lizing	-10.6557
喜愛	-10.6559
alu	-10.6561
iyakarunan	-10.6562
性	-10.6562
撒	-10.6563
永	-10.6566
跟同學借	-10.6566
永遠	-10.6566
槍	-10.6567
盛	-10.6567
mianganger	-10.6569
在那裡	-10.6569
岸	-10.6569
有十個	-10.6569
途	-10.657
少年	-10.657
sirep	-10.657
述	-10.657
妻	-10.657
舅	-10.6571
班	-10.6571
獵到	-10.6571
認	-10.6571
hung	-10.6571
人也	-10.6571
適	-10.6571
請假	-10.6572
悔	-10.6572
綠島	-10.6572
肚	-10.6572
議	-10.6572
樓梯	-10.6573
區	-10.6573
否	-10.6573
kedet	-10.6573
漸漸	-10.6573
剩	-10.6573
etre	-10.6574
參	-10.6574
縫	-10.6574
sikaw	-10.6574
擺	-10.6574
體	-10.6574
院	-10.6574
領	-10.6574
不幸者	-10.6574
製	-10.6574
擔	-10.6575
舉	-10.6575
居	-10.6575
nanta	-10.6575
互	-10.6575
壁	-10.6575
古	-10.6575
訪	-10.6576
鐘	-10.6576
melra	-10.6576
織	-10.6576
旅	-10.6576
豬肉	-10.6576
拜	-10.6576
米糕	-10.6576
管	-10.6576
乳	-10.6576
啟	-10.6576
構	-10.6576
颱	-10.6576
陰	-10.6576
創	-10.6576
始	-10.6576
獨	-10.6576
糯米	-10.6576
umayan	-10.6576
市	-10.6577
律	-10.6577
輪	-10.6577
查	-10.6577
播	-10.6577
虎	-10.6577
錄	-10.6577
羽毛	-10.6577
飲	-10.6577
讀	-10.6577
釀	-10.6577
返	-10.6577
簡	-10.6577
麵	-10.6577
橋	-10.6577
規	-10.6577
鈴	-10.6577
liked	-10.6577
站	-10.6577
境	-10.6578
決	-10.6578
彎	-10.6578
阿美	-10.6578
破	-10.6578
磨	-10.6578
甘蔗	-10.6578
鮮	-10.6578
季	-10.6578
寮	-10.6578
勢	-10.6578
瓦	-10.6578
配	-10.6578
蟹	-10.6578
根	-10.6578
煩	-10.6578
耙	-10.6578
編輯	-10.6578
搭飛機	-10.6578
資	-10.6578
旱	-10.6578
箱	-10.6578
奶	-10.6578
看見	-10.6578
é	-10.6578
呂家	-10.6578
其家屬	-10.6578
續	-10.6578
葬	-10.6578
質	-10.6578
飼養	-10.6578
樹幹	-10.6578
掃墓	-10.6578
亡	-10.6578
拔	-10.6578
蛀	-10.6578
哥	-10.6578
吸	-10.6578
觸	-10.6578
陪	-10.6578
姻	-10.6578
列	-10.6578
福	-10.6578
襲	-10.6578
抵達	-10.6578
捕鼠夾	-10.6578
清楚的	-10.6578
烘培	-10.6578
腸	-10.6578
良	-10.6578
登	-10.6578
aretiz	-10.6578
雖	-10.6578
懲罰	-10.6578
戈	-10.6578
童	-10.6578
閱	-10.6578
寬廣	-10.6579
息	-10.6579
休	-10.6579
穀	-10.6579
醫療	-10.6579
▁R	-10.6579
健	-10.6579
協助	-10.6579
唯一	-10.6579
噴	-10.6579
媒人	-10.6579
帶往巴拉冠	-10.6579
愈	-10.6579
捆綁	-10.6579
柚	-10.6579
災	-10.6579
燒焦	-10.6579
睪	-10.6579
究	-10.6579
絲	-10.6579
經濟價值	-10.6579
臭	-10.6579
苣	-10.6579
萵	-10.6579
蝕	-10.6579
解脫	-10.6579
農產品	-10.6579
邀集	-10.6579
vele	-10.6579
紫	-10.6579
責罵	-10.6579
▁Dan	-10.6579
單	-10.6579
財	-10.6579
巫師首領	-10.6579
專門	-10.6579
是木頭柱子	-10.6579
褲	-10.6579
禱	-10.6579
肥	-10.6579
臀	-10.6579
蜂	-10.6579
2003~2009	-10.6579
丸	-10.6579
主要是為	-10.6579
佈置	-10.6579
勘查	-10.6579
召開了	-10.6579
向祖靈祝禱	-10.6579
抱	-10.6579
捕鼠器	-10.6579
撞	-10.6579
散	-10.6579
泛舟	-10.6579
溫	-10.6579
濤	-10.6579
灌溉	-10.6579
猛打	-10.6579
的怒	-10.6579
盈	-10.6579
直系的祖父母	-10.6579
窗	-10.6579
籬	-10.6579
繁衍	-10.6579
胸	-10.6579
裏	-10.6579
詩	-10.6579
貓頭鷹	-10.6579
追尋	-10.6579
階	-10.6579
露	-10.6579
盪鞦韆	-10.6579
飢	-10.6579
驅	-10.6579
協尋失	-10.6579
80%	-10.6579
▁我們要把優美的傳統文化復振起來	-10.6579
倉	-10.6579
十九	-10.6579
咐	-10.6579
弱	-10.6579
復振	-10.6579
忘了所有	-10.6579
推薦	-10.6579
擋	-10.6579
敘舊	-10.6579
斑鳩	-10.6579
衛生紙	-10.6579
酗酒的	-10.6579
鉤	-10.6579
驅邪	-10.6579
Ku	-10.6579
所屬的	-10.6579
明年冬天會很冷	-10.6579
附贈	-10.6579
們打獵的武器	-10.6579
徘徊	-10.6579
橘	-10.6579
欠	-10.6579
毛巾	-10.6579
沿	-10.6579
dalredalrep	-10.6579
你是怎麼學	-10.6579
供	-10.6579
089-384307,	-10.6579
2022	-10.6579
Arevuwan	-10.6579
CD	-10.6579
Cow	-10.6579
Demaway	-10.6579
Dionysus	-10.6579
Hokkaydo	-10.6579
Inor	-10.6579
Kemalan	-10.6579
Ngayngay	-10.6579
Palilraw	-10.6579
Pēking	-10.6579
Sakiraya	-10.6579
Saysiyat	-10.6579
Untay	-10.6579
Viruwa	-10.6579
Vuya	-10.6579
Yonghong	-10.6579
Yongta	-10.6579
angesisan	-10.6579
aresasiyaw	-10.6579
avungtus	-10.6579
himpu	-10.6579
ikalaalup	-10.6579
inupizan	-10.6579
ipasarar	-10.6579
j	-10.6579
kaduresiresi	-10.6579
kalralramanen	-10.6579
kalrayakayanan	-10.6579
kalriketriyu	-10.6579
karakaselruselruwaw	-10.6579
kawcong	-10.6579
kemilauzan	-10.6579
kengkeng	-10.6579
ketrivitrivi	-10.6579
kilralrimaw	-10.6579
kilrepit	-10.6579
kipakakudain	-10.6579
kirewaazuwazuk	-10.6579
kitinavavawan	-10.6579
kuresaremud	-10.6579
likezan	-10.6579
lrukelrukkaw	-10.6579
maherareher	-10.6579
mahuwaahu	-10.6579
makakanatanatal	-10.6579
marakakuwalengalengan	-10.6579
marakaytayitayan	-10.6579
maralawalawas	-10.6579
maramingadangadan	-10.6579
marapazangazangal	-10.6579
marepakalrawalrawa	-10.6579
maretavuwavuwas	-10.6579
maretazatazar	-10.6579
maretrevutrevung	-10.6579
mareveliyaliyas	-10.6579
masenkin	-10.6579
mataravusuvusur	-10.6579
melingling	-10.6579
melramelramek	-10.6579
melratuz	-10.6579
merimatran	-10.6579
mipurekalrawan	-10.6579
muhamut	-10.6579
mukavukavung	-10.6579
mulepulepun	-10.6579
mulitrulitrunga	-10.6579
mupasapasalr	-10.6579
mutangrus	-10.6579
mutrerev	-10.6579
muwaranak	-10.6579
ngalasangas	-10.6579
ngangadiran	-10.6579
ngelrungelrulr	-10.6579
ninzing	-10.6579
niretrevungan	-10.6579
paduwakeduk	-10.6579
pakalretunaw	-10.6579
palenak	-10.6579
parepidapidan	-10.6579
pasarazanay	-10.6579
patarivelretreng	-10.6579
patelraulrausay	-10.6579
patralalikuwan	-10.6579
patrelikulikuwanay	-10.6579
patrepelr	-10.6579
pazazangalan	-10.6579
penatezelr	-10.6579
pinakalikaling	-10.6579
pinakavulavulay	-10.6579
pinakirev	-10.6579
pinalakuwanan	-10.6579
pinarayasan	-10.6579
pinaretrevung	-10.6579
pingkim	-10.6579
pinisapsapan	-10.6579
pungadangadan	-10.6579
puresaring	-10.6579
putamakuwan	-10.6579
puvalesay	-10.6579
sakuwaniyani	-10.6579
salikilikiz	-10.6579
semalipez	-10.6579
sinbung	-10.6579
sirusirupan	-10.6579
tapesukay	-10.6579
temavatavar	-10.6579
temehateha	-10.6579
temungutungul	-10.6579
teruterusan	-10.6579
tinalasiyu	-10.6579
tinutrawtrawan	-10.6579
tratrakawen	-10.6579
tremilratrilraw	-10.6579
trinautrau	-10.6579
ututemararamaw	-10.6579
venavusus	-10.6579
veresuken	-10.6579
vetratreker	-10.6579
vinarevaran	-10.6579
zinekezekan	-10.6579
▁Katadepan	-10.6579
▁Mulivelivek	-10.6579
▁Taycong	-10.6579
▁Yécumin	-10.6579
▁cuēciyo	-10.6579
▁hayaduli	-10.6579
▁kilauzan	-10.6579
▁melihis	-10.6579
▁melrepit	-10.6579
▁mibunsiyo	-10.6579
▁mulrangulranguy	-10.6579
▁paliyangkaw	-10.6579
▁rimekan	-10.6579
▁semavesav	-10.6579
▁sonciyo	-10.6579
▁taramunah	-10.6579
▁tematelriw	-10.6579
▁tilibi	-10.6579
▁tosiyokang	-10.6579
▁valalisan	-10.6579
▁venakvak	-10.6579
一萬五千人	-10.6579
上帝	-10.6579
串	-10.6579
人口最多	-10.6579
伯母	-10.6579
伯父	-10.6579
保守謙虛	-10.6579
催	-10.6579
傲	-10.6579
傾	-10.6579
優良	-10.6579
出售	-10.6579
分工合作	-10.6579
刷	-10.6579
北海道	-10.6579
卡	-10.6579
叉	-10.6579
受邀	-10.6579
召集	-10.6579
可惜	-10.6579
吉	-10.6579
和爸爸媽媽一起住	-10.6579
咬	-10.6579
哇	-10.6579
哭泣	-10.6579
唷	-10.6579
單列族名	-10.6579
嘗	-10.6579
嘻	-10.6579
嚴肅	-10.6579
圖書館	-10.6579
地瓜葉跟龍鬚菜	-10.6579
坍塌	-10.6579
埋	-10.6579
基	-10.6579
堆	-10.6579
太遠的地方	-10.6579
奪得腰鈴	-10.6579
妄想	-10.6579
威	-10.6579
娶那少女為妻	-10.6579
婆	-10.6579
媳	-10.6579
嫂	-10.6579
嬸嬸	-10.6579
官	-10.6579
宴	-10.6579
寂寞	-10.6579
寄以厚望	-10.6579
寶	-10.6579
尖	-10.6579
尚	-10.6579
山丘	-10.6579
岩	-10.6579
島嶼	-10.6579
巧	-10.6579
平常怎麼	-10.6579
年級	-10.6579
座位	-10.6579
廳	-10.6579
從那時起	-10.6579
忌諱	-10.6579
怡然	-10.6579
怨	-10.6579
恥	-10.6579
患	-10.6579
意志	-10.6579
慈	-10.6579
戀愛	-10.6579
我想去拜訪你	-10.6579
我想請問你關於	-10.6579
我會怕蛇	-10.6579
戴上花環	-10.6579
戴奧尼索斯	-10.6579
抽	-10.6579
拆	-10.6579
拆毀	-10.6579
拇	-10.6579
拋擲	-10.6579
拌	-10.6579
拭	-10.6579
拿抹布	-10.6579
按	-10.6579
授粉	-10.6579
搶	-10.6579
撫慰	-10.6579
擁抱	-10.6579
擇	-10.6579
擠	-10.6579
擾	-10.6579
敲	-10.6579
施咒害人	-10.6579
旅遊的事	-10.6579
旋	-10.6579
是誰教你的	-10.6579
更純熟	-10.6579
會到臺中	-10.6579
松	-10.6579
林	-10.6579
枯死	-10.6579
桌子	-10.6579
梳	-10.6579
棉	-10.6579
楊麗花	-10.6579
概	-10.6579
歧	-10.6579
死者的家屬親友	-10.6579
毒	-10.6579
毛毛雨	-10.6579
氏族	-10.6579
洞穴	-10.6579
清晨	-10.6579
清除牛糞	-10.6579
測	-10.6579
湧	-10.6579
溢出	-10.6579
滑	-10.6579
滷肉	-10.6579
濕的	-10.6579
濕透	-10.6579
煞	-10.6579
燙	-10.6579
爐	-10.6579
獸夾主人	-10.6579
珍惜	-10.6579
用母語	-10.6579
番	-10.6579
疏	-10.6579
癒	-10.6579
的隱	-10.6579
益	-10.6579
瞌	-10.6579
瞞	-10.6579
瞧	-10.6579
矮	-10.6579
碩	-10.6579
碾米土礱	-10.6579
禾	-10.6579
競	-10.6579
箏	-10.6579
箭矢	-10.6579
絕	-10.6579
縫隙	-10.6579
繞來繞去	-10.6579
老師今天要帶你們去	-10.6579
耶穌	-10.6579
肥沃	-10.6579
胃	-10.6579
脂	-10.6579
脖子	-10.6579
腦	-10.6579
腫	-10.6579
腹瀉	-10.6579
膀	-10.6579
膚	-10.6579
膽	-10.6579
臨	-10.6579
臺東農校	-10.6579
舖	-10.6579
菸盒	-10.6579
薑	-10.6579
蚊	-10.6579
蝸牛	-10.6579
螞蟻	-10.6579
衍架	-10.6579
說法是因為	-10.6579
請給我一件藍色的衣服	-10.6579
謀	-10.6579
豎立	-10.6579
貌	-10.6579
費	-10.6579
賀	-10.6579
賠償	-10.6579
購	-10.6579
賽夏族	-10.6579
距	-10.6579
跟旁邊同學一起看	-10.6579
踢	-10.6579
躍	-10.6579
躺	-10.6579
退	-10.6579
這份工作	-10.6579
這支筆是	-10.6579
逛	-10.6579
逝	-10.6579
避暑	-10.6579
邪惡	-10.6579
酸	-10.6579
鏡	-10.6579
鐵釘	-10.6579
閒	-10.6579
闢為農田	-10.6579
阻擋	-10.6579
難怪	-10.6579
雪	-10.6579
青年們的	-10.6579
青蛙	-10.6579
鞭	-10.6579
預	-10.6579
頭髮	-10.6579
顯	-10.6579
鬼	-10.6579
鹹	-10.6579
Saeruwan	-10.6579
lrungpaw	-10.6579
mutangerus	-10.6579
pakadikadikayaw	-10.6579
palranglrangan	-10.6579
parewaveli	-10.6579
puwakinēng	-10.6579
vinilin	-10.6579
vuriris	-10.6579
▁malikasaw	-10.6579
堅	-10.6579
練	-10.6579
dinukel	-10.6579
emesep	-10.6579
kalikedan	-10.6579
lrehiyan	-10.6579
marasayhuyhu	-10.6579
maridalredalrep	-10.6579
nirevawan	-10.6579
noko	-10.6579
pakakuwaatreng	-10.6579
pakangulringulr	-10.6579
paputremel	-10.6579
pukinēng	-10.6579
rawungaw	-10.6579
▁kuwaaleng	-10.6579
▁pasaseki	-10.6579
我的興趣是	-10.6579
攝影	-10.6579
欺騙	-10.6579
聘金	-10.6579
英姿	-10.6579
alralrevay	-10.6579
kiningeran	-10.6579
mungesalr	-10.6579
pinizazekan	-10.6579
pinuuratran	-10.6579
tinukavulayan	-10.6579
trakuvan	-10.6579
uringetran	-10.6579
仔細	-10.6579
句	-10.6579
含	-10.6579
咩咩	-10.6579
她原本是	-10.6579
已經很便宜	-10.6579
彈	-10.6579
彼此	-10.6579
捷運站	-10.6579
翻過土	-10.6579
胡椒	-10.6579
苗	-10.6579
要如何做才可以停止	-10.6579
讚美	-10.6579
辣	-10.6579
還有空位	-10.6579
阿姨	-10.6579
adawisan	-10.6579
milingaw	-10.6579
pinanatray	-10.6579
venasuka	-10.6579
▁kiyokay	-10.6579
▁lemapus	-10.6579
還沒還我	-10.6579
kemesis	-10.6579
胡蘿蔔	-10.6579
謹慎	-10.6579
▁nadanadaman	-10.6579
▁nilungulr	-10.6579
不停的望	-10.6579
付出	-10.6579
仟	-10.6579
令人羨慕	-10.6579
劃	-10.6579
劇	-10.6579
厭煩	-10.6579
又大又肥	-10.6579
吱	-10.6579
吵	-10.6579
喉嚨	-10.6579
嘔吐	-10.6579
夏季	-10.6579
奉	-10.6579
奔	-10.6579
寒	-10.6579
尤其	-10.6579
廚房	-10.6579
微	-10.6579
忌妒	-10.6579
愚	-10.6579
慮	-10.6579
房屋建築	-10.6579
扛	-10.6579
椅子	-10.6579
櫻花	-10.6579
澀	-10.6579
牲	-10.6579
牽	-10.6579
瞭解自己族群的文化	-10.6579
社會系	-10.6579
膝蓋	-10.6579
虛心	-10.6579
説	-10.6579
酬	-10.6579
闡述	-10.6579
霜	-10.6579
預備	-10.6579
颳	-10.6579
體驗	-10.6579
鳳梨和桃子	-10.6579
1988	-10.6579
kinaaules	-10.6579
pene	-10.6579
▁puzazangiya	-10.6579
iyavavak	-10.6579
kinaidanan	-10.6579
kulriyames	-10.6579
marepuwalralrang	-10.6579
pakamiisi	-10.6579
pavalivalisaw	-10.6579
▁merevaw	-10.6579
收拾	-10.6579
永豐	-10.6579
甩掉	-10.6579
▁ngulringulr	-10.6579
Sēcio	-10.6579
demalreu	-10.6579
merawung	-10.6579
▁renarenazan	-10.6579
成對的	-10.6579
Zarungaw	-10.6579
kuretalrasez	-10.6579
purevuwanay	-10.6579
上次借	-10.6579
人世間	-10.6579
優異的	-10.6579
北京	-10.6579
南島語言	-10.6579
占	-10.6579
名稱的	-10.6579
哭	-10.6579
嘛	-10.6579
噁	-10.6579
噶瑪蘭族	-10.6579
四個方言	-10.6579
套索	-10.6579
妝	-10.6579
委託	-10.6579
屋簷	-10.6579
影響	-10.6579
忍耐	-10.6579
戒酒	-10.6579
拒絕	-10.6579
搬弄是非	-10.6579
放鬆	-10.6579
淨身	-10.6579
爛的	-10.6579
犯錯	-10.6579
獵到的獵物	-10.6579
獵場的界線	-10.6579
發怒	-10.6579
的表現	-10.6579
皇民	-10.6579
純	-10.6579
紙	-10.6579
臉	-10.6579
自然就	-10.6579
蔬菜	-10.6579
藝	-10.6579
蜜蜂	-10.6579
街	-10.6579
警鈴	-10.6579
贊揚	-10.6579
超市	-10.6579
農閒時	-10.6579
逢	-10.6579
遇有	-10.6579
遇見	-10.6579
遵守	-10.6579
鄒族	-10.6579
雅美族	-10.6579
頌	-10.6579
魯凱族	-10.6579
melikapa	-10.6579
sumunan	-10.6579
他們的父親	-10.6579
厚厚	-10.6579
姐姐的名字是	-10.6579
雕刻	-10.6579
dalus	-10.6579
parevaveliyasan	-10.6579
金黃色	-10.6579
iyavureng	-10.6579
kiyanatray	-10.6579
▁panadanadaman	-10.6579
marekaiyaniyan	-10.6579
pukpuk	-10.6579
撒奇	-10.6579
是非常珍貴	-10.6579
稱之為	-10.6579
窗隙	-10.6579
諸	-10.6579
身分證	-10.6579
pararuniyan	-10.6579
▁makalauz	-10.6579
觀光景點	-10.6579
lramumu	-10.6579
semneng	-10.6579
探望	-10.6579
inulepunan	-10.6579
財務	-10.6579
▁pulusuwaw	-10.6579
一代又一代	-10.6579
前往去除穢氣	-10.6579
印	-10.6579
及柱子斜撐	-10.6579
可說是	-10.6579
圈	-10.6579
國民政府接收	-10.6579
套頸式	-10.6579
妥	-10.6579
密	-10.6579
年齡階級	-10.6579
弧	-10.6579
擊臀	-10.6579
政策	-10.6579
敢	-10.6579
柄	-10.6579
梗	-10.6579
櫃	-10.6579
烘烤	-10.6579
爆香	-10.6579
白蟻	-10.6579
瞭解	-10.6579
祈禱	-10.6579
私	-10.6579
粿	-10.6579
糊	-10.6579
蓆	-10.6579
被讚揚	-10.6579
貧	-10.6579
較年長的	-10.6579
進住巴拉冠	-10.6579
隻的田鼠	-10.6579
風鼓機	-10.6579
鳴	-10.6579
kakeretaw	-10.6579
▁kimarevu	-10.6579
南瓜	-10.6579
pararelrang	-10.6579
pasavung	-10.6579
兼顧	-10.6579
的個性	-10.6579
iyapuitras	-10.6579
mututayna	-10.6579
Rukay	-10.6579
inelrangan	-10.6579
偶爾也會	-10.6579
師範	-10.6579
我以後一定會	-10.6579
技	-10.6579
知識	-10.6579
請我們吃	-10.6579
滿滿	-10.6579
閱讀	-10.6579
幫助	-10.6579
kinaaydanan	-10.6579
paranganger	-10.6579
elralriwang	-10.6579
maresawur	-10.6579
內臟	-10.6579
思考	-10.6579
聚餐	-10.6579
十五歲時	-10.6579
呼喊	-10.6579
垮	-10.6579
建造一間小	-10.6579
慌	-10.6579
每兩年	-10.6579
特殊	-10.6579
的建和與知本	-10.6579
聖經	-10.6579
記載	-10.6579
階級	-10.6579
鼓掌	-10.6579
wavelaliyasan	-10.6579
朗	-10.6579
mulisek	-10.6579
木炭	-10.6579
張狂	-10.6579
kemirakaz	-10.6579
湯匙	-10.6579
緩步	-10.6579
慶典	-10.6579
kikezetan	-10.6579
囑	-10.6579
牆壁骨架	-10.6579
陪伴	-10.6579
kakuyyan	-10.6579
▁sasizungan	-10.6579
婦女在部落做	-10.6579
市區	-10.6579
鐵撬	-10.6579
不同顏色的	-10.6579
例	-10.6579
割取茅草	-10.6579
可謂	-10.6579
吊	-10.6579
啥	-10.6579
我們經過了	-10.6579
採摘	-10.6579
板凳	-10.6579
洪水	-10.6579
生產的鮮奶	-10.6579
產婦	-10.6579
砍取竹子	-10.6579
緊急事件	-10.6579
脫穀機	-10.6579
迴轉	-10.6579
那隻梅花鹿	-10.6579
項鍊	-10.6579
養殖乳牛的	-10.6579
kamarangeran	-10.6579
卑南八社	-10.6579
masalralretrap	-10.6579
melingez	-10.6579
tukeraw	-10.6579
五十年前	-10.6579
繫	-10.6579
養殖	-10.6579
aratrip	-10.6579
一間學校讀書	-10.6579
永達	-10.6579
騎摩托車去	-10.6579
kadalis	-10.6579
有養一隻	-10.6579
每年到海邊來餵我	-10.6579
滅亡	-10.6579
獵人有獵物	-10.6579
的好季節	-10.6579
包容	-10.6579
依靠弓	-10.6579
拔河	-10.6579
▁paretelun	-10.6579
居民	-10.6579
迷路	-10.6579
集體	-10.6579
登記	-10.6579
便宜一點	-10.6579
型	-10.6579
操場	-10.6579
檳榔樹幹	-10.6579
男女青年	-10.6579
祭司的職務	-10.6579
豐富多元	-10.6579
酪農	-10.6579
鹿獻祭	-10.6579
kaahelran	-10.6579
kapakirevan	-10.6579
歸類	-10.6579
▁Yé	-10.6579
我也祝你	-10.6579
我們的傳統料理	-10.6579
dadawanan	-10.6579
乾旱	-10.6579
應該要用	-10.6579
認證	-10.6579
haremaremay	-10.6579
ilralremes	-10.6579
vasuk	-10.6579
資源	-10.6579
物館	-10.6579
宗教	-10.6579
宣傳	-10.6579
約五公	-10.6579
雄性	-10.6579
務農	-10.6579
40	-10.658
服務	-10.658
編輯群	-10.658
eresur	-10.658
reve	-10.658
勢力	-10.658
夫妻	-10.658
相聚	-10.658
Ahuy	-10.658
Tainan	-10.658
niredekan	-10.658
幸運	-10.658
的功能	-10.658
體力	-10.658
哪些語言	-10.658
消磨	-10.658
mukepel	-10.658
nganguwayan	-10.658
蟲蛀	-10.658
▁pasurung	-10.658
ziketran	-10.658
甜甜的	-10.658
聯絡處	-10.658
▁wawariwari	-10.658
▁musapur	-10.658
岸邊	-10.658
竊取	-10.658
責打	-10.658
須接受	-10.658
paelrangan	-10.658
比我爸爸年長	-10.658
是太平國小	-10.658
全體	-10.658
saputraw	-10.658
團體	-10.658
石板屋	-10.658
法令	-10.658
甘蔗園	-10.658
置物	-10.658
鐵耙	-10.658
雅族	-10.658
結實	-10.658
在房間裡	-10.658
依靠	-10.658
少年會所	-10.658
破壞	-10.658
答應	-10.658
雨傘	-10.658
▁karaesa	-10.658
掀開	-10.658
有這樣子的	-10.658
湖邊	-10.658
石板	-10.658
工具	-10.658
轉彎	-10.658
開墾	-10.658
aziziyan	-10.658
天界	-10.658
Tamē	-10.658
我也沒有帶	-10.658
建築材料	-10.658
我在這邊	-10.658
月桃	-10.658
毛蟹	-10.658
瓦解	-10.658
的成長	-10.658
懷念	-10.658
evut	-10.658
傳統除草祭	-10.658
早安	-10.658
計算	-10.658
差異	-10.658
收錄	-10.658
害怕	-10.658
簡短	-10.658
405	-10.658
制度	-10.658
根鐵	-10.658
貪圖他人財	-10.658
他們全家有	-10.658
充分	-10.658
造物者所	-10.658
koli	-10.658
兜風	-10.658
休息區	-10.658
很有趣	-10.658
看電視	-10.658
竹橋	-10.658
▁kitrevunga	-10.658
他是我的哥哥	-10.658
織繡	-10.658
我很想念	-10.658
所繡的	-10.658
折斷	-10.658
總是把	-10.658
那天天氣	-10.658
麵包	-10.658
依舊	-10.658
飛鼠	-10.658
少許	-10.658
nilrutrelrutr	-10.658
palisi	-10.658
我的故鄉	-10.658
那天會下雨	-10.658
araretiz	-10.658
藏起來	-10.658
kadalikedikan	-10.658
圓管	-10.658
太陽很大	-10.658
照料	-10.658
父親爭	-10.658
空間	-10.658
訪談	-10.658
洗碗	-10.658
曬乾	-10.658
考試	-10.658
醫好	-10.658
老虎	-10.658
味道特別	-10.658
婚期	-10.658
文字	-10.658
配合	-10.658
kakavangan	-10.658
樹豆	-10.658
舌頭	-10.658
melawang	-10.658
的兒子	-10.658
24	-10.6581
1909	-10.6581
查一下	-10.6581
▁menekun	-10.6581
小姐們的	-10.6581
羽毛收	-10.6581
樂器	-10.6581
27	-10.6581
反而	-10.6581
itatuvang	-10.6581
alretru	-10.6581
semaseker	-10.6581
採收	-10.6581
建造	-10.6581
他搭飛機去	-10.6581
luwanan	-10.6581
直到永遠	-10.6581
她也是卑南族	-10.6581
找不到	-10.6581
於民國	-10.6581
突然間	-10.6581
跨年	-10.6581
▁sawka	-10.6581
功課	-10.6581
交通	-10.6581
支出	-10.6581
文章	-10.6581
禮儀	-10.6581
管理	-10.6581
temariyakawud	-10.6581
大約要	-10.6581
負責舉辦	-10.6581
去菜園	-10.6581
新的一年	-10.6581
編花環	-10.6581
趕鳥	-10.6581
特有的	-10.6581
新聞	-10.6581
交代	-10.6581
卑南族的巫術	-10.6581
裝飾	-10.6581
我還要買	-10.6581
美食	-10.6581
大喊	-10.6581
▁malimaliya	-10.6581
招待	-10.6581
▁pikavang	-10.6581
大象	-10.6581
某處	-10.6581
相互幫忙	-10.6581
sawvan	-10.6581
鋪設	-10.6581
會遭	-10.6581
構成	-10.6581
為何	-10.6581
睜大	-10.6581
252	-10.6581
▁maresaresan	-10.6581
發覺	-10.6581
著迷	-10.6582
kinatalrimayan	-10.6582
豆類	-10.6582
偷偷	-10.6582
▁kemianger	-10.6582
比較高	-10.6582
▁pukatelu	-10.6582
katikezir	-10.6582
他的父親	-10.6582
很有興趣	-10.6582
有些人去	-10.6582
這麼好的	-10.6582
袋子	-10.6582
laluwanan	-10.6582
人非常著急	-10.6582
僅存	-10.6582
鐵皮	-10.6582
借我筆	-10.6582
開啟	-10.6582
愛護	-10.6582
十字	-10.6582
溪邊	-10.6582
老鼠	-10.6582
自古	-10.6582
▁merarengay	-10.6582
滴酒	-10.6582
起床	-10.6582
騎腳踏車上學	-10.6582
更換	-10.6582
我們可以一起	-10.6582
kadepu	-10.6582
在場的	-10.6582
早期卑南族的傳統	-10.6582
每次	-10.6582
鋤草	-10.6582
星期六	-10.6582
mulitrung	-10.6582
必定	-10.6582
月亮	-10.6582
母語的	-10.6582
田園	-10.6582
負責的工作	-10.6582
潑水	-10.6582
薪水	-10.6582
水鹿	-10.6582
Simuy	-10.6582
semasalem	-10.6582
mavaavaawa	-10.6582
曾經	-10.6582
經歷	-10.6582
往北	-10.6582
茅草屋頂	-10.6582
semepad	-10.6582
做米糕	-10.6582
上音樂課	-10.6582
天天	-10.6582
舞的習俗	-10.6582
等一下要比賽	-10.6582
daum	-10.6582
muludu	-10.6582
互相交	-10.6582
簍子	-10.6582
我長大了	-10.6582
部落之間	-10.6582
milunain	-10.6582
▁aekanen	-10.6582
savulan	-10.6582
婚禮	-10.6582
收割	-10.6582
商談	-10.6583
這些祭司	-10.6583
有趣	-10.6583
我沒有帶傘	-10.6583
semelavaw	-10.6583
搖動	-10.6583
二樓	-10.6583
早先	-10.6583
的過程中	-10.6583
藤類	-10.6583
改善	-10.6583
精神	-10.6583
年出生的	-10.6583
知道的不多	-10.6583
takuvan	-10.6583
任何事	-10.6583
草太	-10.6583
kasavelawan	-10.6583
責任	-10.6583
▁kinakuwa	-10.6583
第二	-10.6583
自己種的	-10.6583
pinakakawangan	-10.6583
起初	-10.6583
擔心	-10.6583
盛行	-10.6583
從某處	-10.6583
並無人	-10.6583
準青年	-10.6583
跟耆老	-10.6583
地區	-10.6583
戴花	-10.6583
varat	-10.6583
背籃	-10.6583
開玩笑	-10.6583
kapatezelran	-10.6583
pinakalrangan	-10.6583
近幾年	-10.6583
熱情	-10.6583
vaveliyas	-10.6583
會給他	-10.6583
下次教	-10.6583
不准	-10.6583
靠近	-10.6583
會到學校	-10.6583
請問我可以錄	-10.6583
velenan	-10.6583
青年會所	-10.6583
舉行祭祀	-10.6584
公車站	-10.6584
擺攤	-10.6584
冰箱裡	-10.6584
piaitras	-10.6584
生產	-10.6584
kapamaw	-10.6584
muvalesa	-10.6584
risem	-10.6584
▁kiyalumay	-10.6584
我們要到田裡	-10.6584
有恩	-10.6584
縫中	-10.6584
天黑	-10.6584
mureha	-10.6584
弟弟的腳	-10.6584
十七	-10.6584
▁maralralrak	-10.6584
壯年	-10.6584
討論如何	-10.6584
烤地瓜	-10.6584
她是阿美族	-10.6584
pamamelri	-10.6584
講話	-10.6584
’’	-10.6584
透過	-10.6584
vanggo	-10.6584
呼呼	-10.6584
馬路	-10.6584
1940	-10.6584
否則	-10.6584
▁pakirungetr	-10.6585
lretrap	-10.6585
十六	-10.6585
ninta	-10.6585
輕快	-10.6585
明天天氣	-10.6585
隨之	-10.6585
傳統舞	-10.6585
建築物	-10.6585
有時候是	-10.6585
眼光	-10.6585
梯上樓	-10.6585
森林裡	-10.6585
解除	-10.6585
景點	-10.6585
書寫	-10.6585
畢業	-10.6585
山藥	-10.6585
▁kinadaman	-10.6585
kamaresanan	-10.6585
白飯	-10.6585
人數最	-10.6585
聽起來很	-10.6585
在火車站	-10.6585
大魚在	-10.6585
最廣	-10.6585
綠島去	-10.6585
kipuwaitrasan	-10.6586
▁vavalrayan	-10.6586
這麼說	-10.6586
隔天	-10.6586
後悔	-10.6586
適當	-10.6586
今日	-10.6586
Muya	-10.6586
出現	-10.6586
跑進	-10.6586
道路	-10.6586
編花	-10.6586
特地	-10.6586
全身	-10.6586
這片	-10.6586
tinuviruwa	-10.6586
為不幸者	-10.6586
▁paliyus	-10.6586
形式	-10.6586
牛車	-10.6586
舅子	-10.6586
我爸爸的名字是	-10.6586
hiw	-10.6587
etrevay	-10.6587
emalang	-10.6587
非常溫暖	-10.6587
kipuwazangi	-10.6587
▁muturarahan	-10.6587
tinuayawan	-10.6587
來這裡的	-10.6587
1947	-10.6587
行祭	-10.6587
壞事	-10.6587
遠方	-10.6587
kimalrazama	-10.6587
▁melranguy	-10.6587
她覺得	-10.6587
piaiyan	-10.6587
問問	-10.6587
發燒	-10.6587
意指	-10.6587
trilr	-10.6587
▁temala	-10.6587
人口最少	-10.6587
你搭捷運	-10.6587
小米田	-10.6587
kalumayan	-10.6587
Say	-10.6588
如蒸	-10.6588
像帽子	-10.6588
你搭什麼	-10.6588
皮帶	-10.6588
etrum	-10.6588
上述	-10.6588
etran	-10.6588
上岸	-10.6588
即可	-10.6588
就看見	-10.6588
唱歌跳舞	-10.6588
需要什麼嗎	-10.6588
學校讀書	-10.6588
asilr	-10.6588
除草	-10.6588
在部落裡	-10.6588
服從	-10.6588
Saku	-10.6588
別人家	-10.6589
跟著爸爸	-10.6589
告別	-10.6589
暗地	-10.6589
二十五	-10.6589
參加祭典	-10.6589
很快地	-10.6589
歲月	-10.6589
我們全家都	-10.6589
教書	-10.6589
iyalremes	-10.6589
lrangisay	-10.6589
多次	-10.6589
相同	-10.6589
我最喜歡	-10.6589
Asing	-10.6589
的過程	-10.6589
只能	-10.6589
五十	-10.659
將牠	-10.659
常去的	-10.659
溪流	-10.659
我和哥哥	-10.659
一起回去	-10.659
十一點	-10.659
tavur	-10.659
成立	-10.659
然後	-10.659
panguninan	-10.659
也許	-10.659
wanglru	-10.659
感動	-10.659
我們去打	-10.659
第三	-10.659
kemianganger	-10.659
真正的	-10.659
中長者	-10.659
小偷	-10.659
跌倒了	-10.659
piaeman	-10.6591
割下	-10.6591
大致	-10.6591
所種植	-10.6591
▁sasungal	-10.6591
你什麼時候要還我	-10.6591
你的興趣	-10.6591
敵我	-10.6591
族人聚集在	-10.6591
為的是	-10.6591
emawu	-10.6591
liw	-10.6591
他跟同學借	-10.6592
就屬	-10.6592
在女家	-10.6592
間教室	-10.6592
▁tinuhus	-10.6592
幾位	-10.6592
方向	-10.6592
非常好吃	-10.6592
要請假	-10.6592
我忘了帶筆	-10.6592
分享獵物	-10.6592
向政府	-10.6592
煮飯	-10.6592
河水	-10.6592
到他家	-10.6592
持家	-10.6593
▁muwapatraran	-10.6593
uwaturahanan	-10.6593
一斤	-10.6593
再次	-10.6593
祭儀也	-10.6593
▁naniwanan	-10.6593
山地部落	-10.6593
tremangiya	-10.6594
我的魚	-10.6594
該族	-10.6594
▁kamalrazaman	-10.6594
走失	-10.6594
越來越多	-10.6594
ikaarekezan	-10.6594
一九	-10.6594
才知道	-10.6594
▁kaadawilran	-10.6594
打電話	-10.6594
▁velretrenganan	-10.6594
atelranay	-10.6594
▁vinali	-10.6594
不願	-10.6594
撒謊	-10.6595
我很喜歡	-10.6595
現在釋迦	-10.6595
大家相互	-10.6595
piyanguwayan	-10.6595
patrepayanay	-10.6595
夠了	-10.6595
好工具	-10.6595
kenanama	-10.6595
找回	-10.6595
到凱旋門	-10.6596
提到	-10.6596
備用的	-10.6596
爬到	-10.6596
稱為	-10.6596
vusur	-10.6596
炎熱的	-10.6596
過世的	-10.6596
之間的	-10.6596
semavalran	-10.6596
開門	-10.6596
孫子	-10.6596
很適合	-10.6596
叫大家一起來吃	-10.6596
原住民語	-10.6596
高中	-10.6596
爸爸媽媽	-10.6597
被關	-10.6597
亮時	-10.6597
的傳說	-10.6597
一起煮	-10.6597
收穫祭及	-10.6597
trematrangis	-10.6597
vangesaran	-10.6598
小學	-10.6598
lepun	-10.6598
幾月	-10.6598
山野	-10.6598
miaalrak	-10.6598
不能再	-10.6598
說故事	-10.6598
不然	-10.6598
平等	-10.6599
你是哪一	-10.6599
和射	-10.6599
驚人	-10.6599
分離	-10.6599
這個孩子	-10.6599
完成後	-10.6599
trah	-10.6599
sepelr	-10.6599
的說法	-10.6599
先從	-10.6599
風格	-10.6599
獻上	-10.6599
不要忘記	-10.66
去擦	-10.66
▁padikes	-10.66
▁Huwa	-10.66
五天	-10.66
uwatehayan	-10.66
樹下	-10.66
emiraw	-10.66
由祭司	-10.66
paresepad	-10.66
alrev	-10.66
對方	-10.66
ed	-10.6601
鍋子	-10.6601
把青年抬	-10.6601
所喜愛的	-10.6601
我們去買	-10.6602
入山	-10.6602
寫著	-10.6602
karesis	-10.6602
▁kasaharan	-10.6602
的罪惡	-10.6602
打獵時	-10.6602
▁kuwadakudayan	-10.6602
▁pisuku	-10.6602
太太是	-10.6602
富有	-10.6602
丟棄	-10.6603
和祭儀	-10.6603
miyalikuz	-10.6603
及祖靈	-10.6603
最好的	-10.6603
mualring	-10.6603
他要去	-10.6603
tezek	-10.6603
據說	-10.6603
在此	-10.6603
不幸	-10.6604
騎機車	-10.6604
叔叔家	-10.6604
ngiyaw	-10.6604
vavariw	-10.6604
如燒	-10.6604
親友們	-10.6604
製作這	-10.6604
vilinaw	-10.6604
媽媽買	-10.6604
puremakiteng	-10.6605
好像下	-10.6605
不知	-10.6605
我有一個	-10.6605
並且	-10.6605
比就	-10.6605
itrila	-10.6605
palran	-10.6605
網子	-10.6606
颱風快	-10.6606
告訴他	-10.6606
你的爸爸	-10.6606
身體不	-10.6606
再去	-10.6607
職業	-10.6607
harutr	-10.6607
手把	-10.6607
你要吃	-10.6607
人間	-10.6608
部落訪問	-10.6608
vulavula	-10.6608
puwat	-10.6609
ilivi	-10.6609
不太	-10.6609
我今天有	-10.6609
鮮美的	-10.6609
kitaramaw	-10.6609
terin	-10.661
avalr	-10.661
Sanali	-10.661
出發	-10.661
年輕時	-10.661
yē	-10.661
結束了	-10.661
傳統服飾	-10.661
叫喚	-10.6611
我的書	-10.6611
▁pulusu	-10.6611
▁muturik	-10.6611
還能	-10.6611
極了	-10.6611
▁kasiya	-10.6611
蓋子	-10.6612
先後	-10.6612
tinuirupan	-10.6612
穿著	-10.6612
▁sē	-10.6612
帶回家	-10.6613
kipakarun	-10.6613
▁temutaw	-10.6613
就會看到	-10.6613
隻是	-10.6614
男生	-10.6614
共有十	-10.6614
很久沒有	-10.6615
kurevali	-10.6615
為主要	-10.6616
日語	-10.6617
或者	-10.6617
meravi	-10.6617
▁treme	-10.6617
我們約	-10.6618
變換	-10.6618
今天看到了	-10.6618
▁marepauwa	-10.6619
聚集	-10.6619
傳統女	-10.6619
約在	-10.6619
部落文化	-10.6619
你怎麼會	-10.6619
卑南族的部落	-10.662
也會說	-10.662
utilran	-10.662
pakaarekez	-10.662
walay	-10.6621
Yēsu	-10.6622
不少	-10.6622
我問	-10.6622
常來	-10.6623
和平	-10.6623
semever	-10.6623
anavang	-10.6623
sivay	-10.6623
umayaw	-10.6623
幾乎都	-10.6623
他怎麼去	-10.6624
上主	-10.6624
的範圍	-10.6624
因著	-10.6625
勇士的	-10.6625
音樂的	-10.6625
▁palremes	-10.6625
的房子	-10.6625
媽媽做的	-10.6625
我覺得	-10.6625
現代的	-10.6626
oci	-10.6626
放置在	-10.6627
地告訴	-10.6627
我明天就	-10.6627
▁kawara	-10.6628
您好	-10.6628
給你們	-10.6628
理會	-10.6628
拿去	-10.6628
inuayaran	-10.6628
之外	-10.6628
算是	-10.6628
感到	-10.6629
▁miyup	-10.6629
非常多	-10.663
飽了	-10.6631
受人	-10.6631
saynin	-10.6631
當成	-10.6632
族人們	-10.6632
都分	-10.6633
數字	-10.6633
卑南族而言	-10.6633
不要再	-10.6635
就還	-10.6635
有魚	-10.6636
▁tratrekel	-10.6637
在樹	-10.6638
同時	-10.6638
也能	-10.6638
點頭	-10.6638
kinasayhuwan	-10.6638
去洗手	-10.6638
parekuzulr	-10.6638
kiyu	-10.6639
接到	-10.6639
大家都不	-10.6639
嚴格的	-10.664
一半	-10.6641
marekaadawilr	-10.6641
▁kaliya	-10.6641
pena	-10.6642
求學	-10.6642
妹妹的名字是	-10.6642
不多	-10.6642
我搭公車	-10.6644
很大的	-10.6644
為其	-10.6644
我看到了	-10.6646
pinakamelriyan	-10.6646
主要	-10.6646
送到	-10.6649
alriwa	-10.6649
日出	-10.6649
等一下要	-10.6649
我幫你	-10.6649
你剛剛	-10.6649
pamelriyan	-10.6649
長子	-10.665
izus	-10.665
創作了	-10.6651
▁tavukulr	-10.6653
女家	-10.6653
話說	-10.6653
一種是	-10.6654
目的是	-10.6654
如這	-10.6654
擁有的	-10.6654
舊的	-10.6654
punun	-10.6655
用過	-10.6655
inuvaawan	-10.6656
換上	-10.6656
的心情	-10.6656
是阿美族	-10.6657
黑的	-10.6658
承辦部落	-10.6658
哪一天	-10.6658
我不知道	-10.666
聽到	-10.6661
dadalan	-10.6661
siuy	-10.6662
不像	-10.6662
不但	-10.6662
愛是	-10.6664
人像	-10.6664
我希望	-10.6664
和泰安部落	-10.6665
大家去	-10.6665
誰是	-10.6665
現在則	-10.6666
我的名字	-10.6666
hemilrehilre	-10.6667
卻不	-10.6667
斷了	-10.6668
mutani	-10.6669
我去叫	-10.667
前來	-10.667
社會	-10.6671
借你的	-10.6671
saasing	-10.6672
植	-10.6673
marekatelu	-10.6673
sasalem	-10.6673
對我說	-10.6673
vawur	-10.6673
拿來	-10.6674
pakadalikedik	-10.6675
一個祭司	-10.6675
外套是	-10.6675
並沒有	-10.6675
村長	-10.6676
milihu	-10.6677
▁midanaw	-10.6677
祭品	-10.6678
▁sasing	-10.6679
我昨天	-10.6679
如果沒有	-10.668
來抓	-10.668
uvir	-10.6681
有人說	-10.6682
走吧	-10.6682
是幾	-10.6683
▁paurung	-10.6683
的意義	-10.6684
的海	-10.6684
lam	-10.6685
daramiyan	-10.6685
這是你	-10.6686
一看	-10.6686
sepad	-10.6687
在過去	-10.6687
用手	-10.6687
子女	-10.6687
uzan	-10.6687
muwaravak	-10.6687
上來	-10.6688
▁valruvalrur	-10.6688
可以再	-10.669
uled	-10.669
正好	-10.6691
▁mutralun	-10.6691
假日天氣	-10.6692
nekun	-10.6693
zun	-10.6693
改變了	-10.6694
pialusu	-10.6695
11.	-10.6696
有東西	-10.6696
若是	-10.6697
zaymu	-10.6698
kung	-10.6698
的身分	-10.6699
▁niravak	-10.67
apit	-10.6702
pakalrazaman	-10.6703
地方可以	-10.6704
數量	-10.6704
可是	-10.6704
很大	-10.6705
▁wasay	-10.6705
做到	-10.6705
sinkay	-10.6706
以為	-10.6706
得名	-10.6706
山裡	-10.6707
快來	-10.6707
你今天	-10.6708
則用	-10.671
paruni	-10.671
▁sasaya	-10.6711
pamaw	-10.6711
pungaway	-10.6711
一頭	-10.6712
獵祭	-10.6712
住在部落	-10.6713
菜和	-10.6715
我不能	-10.6715
▁mananay	-10.6715
入贅到女方	-10.6716
上頭	-10.6716
水而	-10.6717
形成	-10.6717
walun	-10.6717
更多	-10.6719
▁malemu	-10.6719
奶奶說	-10.672
▁muvaaw	-10.6721
的子孫	-10.6723
我們全家	-10.6723
temarakazu	-10.6724
臺南	-10.6724
▁mikuwalengan	-10.6724
有什麼	-10.6725
▁variyu	-10.6725
確的	-10.6725
▁kaimaranan	-10.6725
才通知	-10.6725
▁matrepu	-10.6726
從來	-10.6726
insiya	-10.6726
▁melrangulranguya	-10.6726
▁pang	-10.6726
▁hitay	-10.6726
▁lralritekan	-10.6726
▁makalruwatr	-10.6726
▁Sezik	-10.6726
▁Kacaw	-10.6726
▁ventrili	-10.6727
▁fukuing	-10.6727
▁purikana	-10.6727
▁temengez	-10.6727
▁mulemuled	-10.6727
▁kemangkang	-10.6727
▁kinaulepan	-10.6727
▁kakawukawud	-10.6727
▁kingkinger	-10.6727
▁trematruwalr	-10.6727
▁kautrerahan	-10.6727
▁venetratrili	-10.6727
▁murepureput	-10.6727
▁pakituvangsar	-10.6727
▁kinaveras	-10.6727
▁kiyatrevung	-10.6728
▁kanatal	-10.6728
重的	-10.6728
▁tratrungulran	-10.6728
▁semasenay	-10.6728
▁parekudakuda	-10.6728
▁meringring	-10.6729
▁Ari	-10.6729
▁kakara	-10.6729
paruwaday	-10.6729
dikadika	-10.673
▁kemirungetr	-10.673
到現在	-10.673
會將	-10.673
▁niliputr	-10.673
mareulas	-10.6731
dadikes	-10.6731
▁sizir	-10.6732
▁ngunin	-10.6732
以上	-10.6733
piyang	-10.6733
▁pusavak	-10.6733
▁muvii	-10.6734
使人	-10.6734
會舉行	-10.6734
很會	-10.6737
marekasayhu	-10.6737
pazeketr	-10.6738
要記得	-10.674
mayeman	-10.6742
很厲害	-10.6742
angaw	-10.6745
iwayan	-10.6745
上面	-10.6745
▁semavalr	-10.6745
舞的	-10.6746
▁tutak	-10.6752
我今天	-10.6752
那就	-10.6752
pakasenay	-10.6753
▁tamana	-10.6754
▁venali	-10.6754
▁zidēnsiya	-10.6755
他再	-10.6756
temuwakasayan	-10.6757
kazazuwayan	-10.6761
煮的	-10.6761
maresenenganengan	-10.6762
我們學校	-10.6764
▁kakawang	-10.6766
因為那	-10.6766
▁karasa	-10.6766
kamutr	-10.6768
因為有	-10.6768
今天是	-10.6769
valenan	-10.6771
zemel	-10.6771
muwavalis	-10.6772
kiresan	-10.6772
非常方便	-10.6772
temuvang	-10.6773
nto	-10.6774
梅花鹿的	-10.6774
的旁邊	-10.6775
也是我	-10.6777
卑南族部落	-10.678
▁kakawangan	-10.6781
▁sasenay	-10.6783
讓我們	-10.6784
一大	-10.6786
kiyarengay	-10.6788
怎麼樣	-10.6788
我拿	-10.6789
ulus	-10.6789
可以用	-10.679
mē	-10.6792
是哪一族	-10.6794
都拿	-10.6795
ga	-10.6795
▁pud	-10.6797
▁kinure	-10.6797
inavaya	-10.6798
▁temamaku	-10.6798
niringring	-10.68
vas	-10.6802
▁trap	-10.6803
mipuwalrepus	-10.6804
帶我	-10.6805
一起來	-10.681
▁mipangasip	-10.681
▁salre	-10.6814
▁S	-10.6814
出來	-10.6814
redek	-10.6814
▁miraw	-10.6817
動了	-10.6818
和部落	-10.6818
▁kikulanga	-10.682
▁uwatu	-10.682
marekasaema	-10.6821
並在	-10.6822
久沒來	-10.6827
pataranapaw	-10.6828
▁arelra	-10.6829
也是卑南族人	-10.6829
的問題	-10.683
▁tru	-10.6832
這時	-10.6833
田裡看顧小米	-10.6836
▁kairayan	-10.684
▁kakudayan	-10.6844
工作經驗	-10.6844
aliw	-10.6846
小孩的	-10.6846
▁kē	-10.6849
你很會	-10.6851
avalray	-10.6852
在台北	-10.6853
pini	-10.6857
▁inalri	-10.6858
patawar	-10.6858
一點的	-10.6858
kazung	-10.6862
▁uwazangi	-10.6862
15.	-10.687
▁menadam	-10.6874
ngizangi	-10.6874
的小孩	-10.6874
lras	-10.6875
rangtrang	-10.6876
把自己	-10.6877
友人	-10.6877
很不	-10.6878
▁paduk	-10.6879
上蒼	-10.688
pata	-10.6884
▁lruwa	-10.6886
▁kakiyas	-10.6887
要多久	-10.6888
kezengu	-10.6889
負責祭祀	-10.6889
▁melilru	-10.6889
▁marahan	-10.6896
的叮嚀	-10.6896
usan	-10.6897
▁isavak	-10.6901
借的	-10.6903
跳了	-10.6904
是很	-10.6907
在那	-10.6907
今天的	-10.6909
▁musama	-10.6913
一顆	-10.6916
▁maziya	-10.6917
經驗的	-10.6919
的手	-10.6924
我們沒有	-10.6928
的媽媽	-10.6929
也希望	-10.6929
是以	-10.6932
vus	-10.6933
▁iyaturu	-10.6933
的學習	-10.6937
開始的	-10.6938
vuruk	-10.694
sungal	-10.694
去倉庫	-10.6943
vavinayan	-10.6946
sasingaw	-10.6947
原則	-10.6953
azinaw	-10.6953
siw	-10.6957
vangavangan	-10.6961
不好	-10.6961
ngw	-10.6967
我要買兩	-10.6968
▁singkay	-10.697
▁siawasē	-10.6971
▁Avarang	-10.6971
▁tēgami	-10.6971
▁Ingvilr	-10.6971
▁Salrevaw	-10.6971
▁venasivas	-10.6972
▁pakiwalay	-10.6972
▁temakakesi	-10.6973
▁Kasang	-10.6973
▁kureseleva	-10.6973
聚在一起	-10.6975
於是他們	-10.6976
不到	-10.6977
容易腐朽	-10.6982
你可以	-10.6983
kureta	-10.6983
kalr	-10.6984
▁tevu	-10.6987
箴言十	-10.6988
少的	-10.699
elrisa	-10.6994
▁mudalrep	-10.6994
地形	-10.6997
kirepauwa	-10.6999
可以出	-10.7
族群的	-10.7002
的一部	-10.7005
ulan	-10.7008
awil	-10.7013
十天	-10.7018
tras	-10.7023
pangara	-10.7028
吟唱的古謠	-10.7028
員之	-10.7034
milramanan	-10.7036
uwakasayan	-10.7038
caw	-10.7039
▁masasa	-10.7051
有親友	-10.7054
▁elra	-10.7054
12.	-10.7056
▁trungulra	-10.7057
到河邊	-10.7057
kama	-10.7058
了家	-10.7068
喜歡春天	-10.7072
▁aramawana	-10.7072
valisaw	-10.7074
waarakan	-10.7079
matratrepa	-10.7079
你最喜歡哪一	-10.7081
talrima	-10.7083
我對	-10.7083
我跟你一起	-10.7088
記憶	-10.7091
pakunamunay	-10.7096
mivas	-10.7097
kikarukarunan	-10.7103
會帶著	-10.7107
esa	-10.7108
裝滿	-10.7109
ivavati	-10.7112
asepa	-10.7118
的一	-10.7118
的風	-10.712
maaya	-10.7125
的陷阱在哪裡	-10.7126
養身	-10.7126
的一切	-10.7127
拿出	-10.7128
他回	-10.7132
可以學習	-10.7134
uwi	-10.7134
meringi	-10.7138
pil	-10.7145
tiyam	-10.7145
的心	-10.7146
部落的耆老	-10.7147
▁eva	-10.7148
可以借我	-10.7148
人有	-10.715
日的	-10.7151
地也	-10.7152
▁kalikeliked	-10.7161
kalramalramanan	-10.7163
不錯	-10.7165
會說族語	-10.7166
lay	-10.717
▁say	-10.717
10.	-10.7173
這裡的	-10.7174
iz	-10.7176
無人	-10.7177
在門口	-10.7181
pungulran	-10.719
paruv	-10.719
▁dem	-10.7195
lran	-10.7195
▁kezet	-10.7199
niwan	-10.7201
taramaw	-10.7205
▁palri	-10.7213
kiteng	-10.7214
emelresapa	-10.7217
▁ngaydiran	-10.7219
▁lrawlraw	-10.722
▁truwalr	-10.722
的時間	-10.7229
▁puwari	-10.7235
原來是	-10.7239
▁temavu	-10.7241
09	-10.7244
這包	-10.7247
8.	-10.7253
會騎腳踏車	-10.7255
要有	-10.7258
▁patalra	-10.7263
mikinikarunan	-10.7274
吃過	-10.7289
▁dad	-10.7291
原來有	-10.7294
▁kima	-10.73
9.	-10.7302
明天下午	-10.7309
製作的	-10.7312
niyan	-10.7313
'!”	-10.7313
▁on	-10.7314
kakudayan	-10.7317
長大	-10.7319
三天	-10.7319
▁trakawa	-10.7322
是軍	-10.7327
到那裡	-10.7328
你打算	-10.7331
zeli	-10.7333
iyu	-10.7338
▁mauwan	-10.7341
misudang	-10.7347
dis	-10.7349
riva	-10.7353
會和我們	-10.7361
偷竊雞隻	-10.7365
千次	-10.7367
他父親	-10.7376
年沒有回	-10.7378
sipe	-10.7389
曾獵獲敵首	-10.739
店的	-10.7392
的對	-10.7394
也喜歡	-10.7395
le	-10.7395
我要回去	-10.7396
ruk	-10.7398
▁10	-10.7404
你的女朋友	-10.7416
aman	-10.742
看我們	-10.7425
sal	-10.7427
yusan	-10.7434
itre	-10.7436
ulray	-10.7438
pateza	-10.7442
kemiya	-10.7445
Yami	-10.745
▁dalreu	-10.7452
該地	-10.7455
成山羊	-10.7459
wayan	-10.7468
palraw	-10.7472
dawan	-10.7475
一個部落	-10.7481
▁mikakavung	-10.7483
lawan	-10.7485
▁iveray	-10.7494
alaw	-10.7501
kazuwa	-10.7504
▁8	-10.7505
那請問	-10.7509
mukirungetr	-10.751
siyaw	-10.7511
你和	-10.7512
的稱謂	-10.7522
kuk	-10.7531
kakuwatrengan	-10.7533
reput	-10.7535
趕回	-10.7536
▁matra	-10.7539
langan	-10.754
傳統舞會	-10.754
upan	-10.7549
你了	-10.7549
和姊姊	-10.7558
▁ti	-10.756
一家	-10.7568
▁lraman	-10.7569
uwatreng	-10.7581
▁makav	-10.7596
▁muwaraka	-10.7598
taharang	-10.7609
附近有	-10.7611
不可以讓	-10.762
atru	-10.7631
Taw	-10.7637
vuri	-10.7639
uli	-10.7641
▁tupu	-10.7656
就由	-10.7657
kakawang	-10.7675
是說	-10.7678
要還	-10.768
現在沒有	-10.7683
trel	-10.7683
kaker	-10.7696
有一個	-10.7697
獵人	-10.7699
快去	-10.7703
歡迎來	-10.7712
semiyana	-10.772
paadangan	-10.7743
▁H	-10.7744
有錢	-10.7747
tuwa	-10.775
savang	-10.7768
快到了	-10.7769
的老闆說	-10.7769
alrana	-10.777
我媽媽	-10.7792
lali	-10.78
美好	-10.7802
milr	-10.7809
古時候	-10.7817
黑色的	-10.7821
四族	-10.7833
的茶	-10.7833
itiyakezir	-10.784
atras	-10.7844
nta	-10.7856
tengez	-10.7858
uwauwa	-10.7859
作物	-10.7867
水的	-10.7868
▁melr	-10.7876
都要	-10.7886
kuzulr	-10.7895
上的	-10.7909
uras	-10.791
們想去	-10.7915
▁enem	-10.7921
的人員	-10.7929
這是我們	-10.7935
有帶	-10.7957
imi	-10.7973
每年都	-10.7982
takesi	-10.7983
▁tihasar	-10.8014
vuwang	-10.8014
去台東	-10.802
inurung	-10.8027
13.	-10.8052
不冷	-10.8056
kanannu	-10.8117
du	-10.8119
mukezeng	-10.8123
seki	-10.8124
我好	-10.8129
我再	-10.8141
會唱歌	-10.8145
求原住民	-10.8147
piyaemanan	-10.8154
比較想	-10.817
itu	-10.8177
atavang	-10.8178
▁mali	-10.8201
都不會	-10.8207
azan	-10.8209
▁pali	-10.8215
了這麼多	-10.8221
kavaaw	-10.8231
au	-10.8233
家裡	-10.8237
uwalremes	-10.8245
竿	-10.8247
maramaranger	-10.8256
ulitr	-10.8259
kem	-10.8269
lramanan	-10.8272
祭司的職	-10.8279
故鄉	-10.8284
trakaw	-10.8296
14.	-10.831
就會	-10.831
muda	-10.8312
uwaitrasan	-10.8316
的新	-10.8321
八十	-10.8329
自己帶	-10.8353
都用釣	-10.8355
把筆	-10.8371
Ay	-10.8371
一手持	-10.8381
▁ipu	-10.8402
kutra	-10.8403
tusuk	-10.8427
在年	-10.8451
enasenay	-10.8461
也可	-10.8467
aniyan	-10.8476
只剩	-10.848
一堂	-10.8494
出門要	-10.8499
kasa	-10.8504
皆有	-10.8521
uwadalrep	-10.8523
▁z	-10.8528
一起住	-10.8533
▁zan	-10.8535
的兄弟	-10.8539
imeng	-10.8547
pamau	-10.8564
沒有祭司	-10.8571
繞回	-10.8571
tan	-10.8577
的父	-10.8598
玩球	-10.8612
upe	-10.8623
iparesaresan	-10.8624
要去山上	-10.866
常見的	-10.8664
her	-10.8668
piniemanan	-10.867
將再	-10.8675
lung	-10.8676
6-	-10.8686
姊	-10.8688
niretr	-10.8705
的說	-10.8709
你想	-10.8723
pakazuwa	-10.8746
retim	-10.8763
你放在	-10.8783
的文化	-10.8792
▁purema	-10.8805
▁kang	-10.8807
說話	-10.881
leman	-10.8857
是森林	-10.8868
獵場狩獵	-10.8872
vala	-10.8883
kimazayara	-10.8902
mutriyur	-10.8909
沒有人	-10.8918
padawilr	-10.8932
sangalr	-10.8936
到我	-10.894
taranapawan	-10.8955
isa	-10.8961
在這	-10.8978
的波	-10.899
中最	-10.9002
16	-10.9016
l	-10.9024
arekezan	-10.903
跟他們	-10.9033
獵到了	-10.9046
先祖們	-10.9076
aruzang	-10.9079
pusar	-10.9087
要賣	-10.9089
要去買	-10.9099
是嗎	-10.9105
▁敬	-10.9129
▁panini	-10.9141
人物	-10.9141
variw	-10.9151
我一下	-10.9153
有名的	-10.9154
kavulay	-10.9168
lunain	-10.9172
在游泳	-10.9199
trap	-10.9207
matu	-10.9255
這邊	-10.9255
▁merawak	-10.9258
▁vulaya	-10.9286
的錶	-10.9292
mitavu	-10.9292
東西都	-10.9298
azangal	-10.9323
是我自己	-10.9424
我沒	-10.9424
av	-10.9454
我們一起吃	-10.9472
▁karay	-10.948
就上到	-10.9504
trungutrungulr	-10.9506
在他們	-10.9512
ruwaday	-10.9524
venav	-10.9525
於是就去	-10.9529
了有關	-10.9536
verelra	-10.9538
分為兩	-10.9539
離開了	-10.9539
miirayan	-10.9554
pin	-10.9565
主人	-10.9568
我的弟弟	-10.957
馬智禮先生的	-10.9591
zay	-10.9594
sel	-10.9601
alre	-10.9619
etim	-10.9626
paranger	-10.963
kadulu	-10.9637
▁trali	-10.9659
kemaira	-10.9668
我頭好痛	-10.9685
ngan	-10.9687
unga	-10.9694
位獵人	-10.9697
要小心	-10.9701
我都	-10.9718
的男人	-10.9722
的獵人	-10.9744
▁zanu	-10.9746
▁kemiya	-10.9765
▁aekan	-10.9765
我就	-10.9767
luku	-10.9769
會因	-10.9778
trim	-10.979
iyam	-10.9793
去工寮	-10.9799
天氣漸	-10.98
pis	-10.9807
天氣很	-10.9827
的歡樂	-10.9848
家了	-10.9857
mudamuk	-10.9872
ngs	-10.9875
▁sina	-10.9875
族語教材	-10.9956
zo	-10.9957
是台東	-10.9975
pidavulan	-10.998
聲所	-10.9982
payrang	-10.9983
apelr	-10.999
奶奶去市	-11.0063
集的	-11.0116
petrir	-11.0161
▁lre	-11.0165
相機	-11.0172
mupetrir	-11.0175
▁2.	-11.0212
ikalalupi	-11.0226
uratr	-11.0245
的圖	-11.0245
買米酒	-11.0257
van	-11.0264
▁kamaw	-11.0266
見了	-11.0282
ilr	-11.0285
kalrazam	-11.0295
apelri	-11.0297
牠不	-11.0345
ysu	-11.0356
ele	-11.0362
taterus	-11.0393
煮好	-11.0393
帶便當	-11.0396
pinare	-11.0415
uwaw	-11.0417
alapi	-11.0432
一定的	-11.0434
難得的	-11.0448
家長	-11.0456
▁semuli	-11.0463
uwazangi	-11.0471
▁tinur	-11.0473
家屋	-11.0476
ving	-11.0493
個偏名	-11.0512
圍在	-11.0546
非常優美	-11.0555
的婚姻	-11.0563
vulan	-11.0571
pilralrangu	-11.0584
的很開心	-11.0598
請問您的	-11.06
造的	-11.0601
▁par	-11.0602
近的	-11.0607
kamau	-11.0648
我忘記	-11.065
ana	-11.0662
我從	-11.0714
照相	-11.0736
tik	-11.0745
akitengan	-11.0752
ruv	-11.076
家準備	-11.0761
我明天	-11.0761
▁puwazangi	-11.0778
外面會很	-11.0789
vaaw	-11.0791
ninmu	-11.0793
要做	-11.0812
sara	-11.0823
最喜歡的	-11.0829
屋子	-11.0834
市場	-11.0837
我和奶奶	-11.0847
▁「	-11.0854
國民	-11.0859
麻煩你	-11.0887
mel	-11.0904
tring	-11.0913
在部落	-11.0936
因為我	-11.0968
之聲	-11.0979
怎麼去	-11.0989
的民族	-11.0995
ange	-11.1014
▁真	-11.1018
響亮	-11.1043
米酒	-11.1045
什麼東西	-11.1068
aretim	-11.108
不完	-11.1085
truwak	-11.1095
認為不	-11.1096
發出	-11.1108
kas	-11.1132
跳下	-11.1137
北邊	-11.114
漸冷	-11.1144
很冷	-11.1174
▁ve	-11.1206
▁makakeze	-11.1209
id	-11.1231
7.	-11.1241
到學校	-11.1273
eka	-11.1288
tuzu	-11.1319
路上要	-11.1348
初鹿部落的	-11.136
din	-11.1367
他是我	-11.1368
aru	-11.1391
emal	-11.1408
就學	-11.143
truli	-11.1444
我們要去	-11.1491
於是就	-11.1495
怎樣	-11.1568
傳說故事	-11.158
lal	-11.1583
▁Ka	-11.16
一百	-11.1614
mus	-11.1656
多的	-11.1665
▁renga	-11.1671
個月	-11.1678
adulu	-11.1703
學會	-11.1715
▁traliya	-11.172
▁ke	-11.1754
這是我	-11.1759
kav	-11.1793
點到	-11.1794
到這邊	-11.1795
alalup	-11.1812
am	-11.1818
去部落	-11.1826
教材	-11.1859
有三	-11.1859
▁marami	-11.1877
tenga	-11.1886
都不	-11.1895
兄姊	-11.1914
keri	-11.1918
200	-11.1919
aysu	-11.1929
走會到	-11.1933
ulep	-11.1947
zang	-11.1969
要怎麼去	-11.1985
tin	-11.2003
pida	-11.2005
先祖們的	-11.201
晚上有	-11.2021
去買	-11.2031
pazangalan	-11.2079
dip	-11.2082
怎麼不	-11.2087
ariya	-11.2108
波	-11.2125
100	-11.2128
要偷竊	-11.2129
部落的人	-11.2131
avakan	-11.2139
▁?	-11.2147
▁muras	-11.2149
遇到長	-11.2197
會了	-11.2201
tim	-11.2203
▁tenge	-11.2217
semasaharanan	-11.2221
是南王	-11.2222
明天星期	-11.2224
我還有	-11.2227
itakesi	-11.2252
▁我們	-11.2256
paresaresan	-11.227
muku	-11.2282
▁kanin	-11.2301
▁sanga	-11.2309
去幫	-11.2312
atray	-11.2316
▁iy	-11.2318
▁iniy	-11.2347
iveray	-11.2369
以往的	-11.2395
▁va	-11.2437
人頭	-11.245
tiv	-11.2459
我現在	-11.246
最為	-11.2461
來到	-11.2469
war	-11.2478
受考驗	-11.2492
manay	-11.2519
是跟	-11.2521
買一	-11.2545
ava	-11.2584
常見	-11.2587
吃不	-11.2597
所吟唱的	-11.2634
才開始	-11.2698
kawang	-11.2703
▁alr	-11.2705
▁ipa	-11.271
成年禮的	-11.2711
你們有賣	-11.2732
與初鹿	-11.2749
▁tin	-11.2752
aped	-11.276
的也有	-11.2764
▁kant	-11.2765
稍等	-11.2775
煮了	-11.2784
今天星期	-11.2814
面是	-11.2825
ngaway	-11.2826
truri	-11.2842
lrasez	-11.2853
▁maraka	-11.289
是知本	-11.2902
▁kikazu	-11.2941
的同	-11.2959
emi	-11.2969
有狩獵	-11.2978
vuut	-11.3
手持	-11.3014
kazuwanan	-11.3032
▁這	-11.3074
iyaanger	-11.3074
▁semu	-11.3076
開的	-11.3078
pay	-11.3081
atrel	-11.3099
▁14	-11.3124
家要	-11.3135
unan	-11.3136
職責	-11.3166
atupa	-11.3191
有其他	-11.3193
你們家	-11.321
的朋友	-11.321
果吃不	-11.3216
要到	-11.3222
......,	-11.3226
什麼時候要還	-11.3232
甚至一	-11.3233
重要	-11.3242
▁mupan	-11.3244
鄉在哪裡	-11.325
對卑南族的	-11.3259
▁年	-11.3298
狩獵的傳統	-11.3337
我要回	-11.3344
ruvu	-11.336
坐下	-11.3368
ekanan	-11.3391
愛的	-11.3418
我要買米	-11.342
▁puyu	-11.3443
你自己	-11.3473
vulrawan	-11.3477
evelr	-11.3493
的活動	-11.3499
upa	-11.3514
很開心	-11.3518
在當	-11.353
rarahan	-11.3542
lrip	-11.3563
▁pareka	-11.3576
很香	-11.3596
置食物	-11.3619
c	-11.362
para	-11.3631
▁mula	-11.366
katras	-11.3696
的族語	-11.37
nin	-11.3718
▁vet	-11.3751
meru	-11.3752
祖先的	-11.3753
vakesi	-11.3753
她就	-11.3806
▁patal	-11.381
物及	-11.3832
賣檳榔	-11.3853
sali	-11.3857
多以	-11.3873
▁parepa	-11.388
lid	-11.3885
叔叔的	-11.3894
hamay	-11.3898
tiyakezir	-11.3901
警察	-11.3913
茶	-11.3913
古時候的	-11.3913
inku	-11.3916
在回	-11.3925
黑色	-11.3944
做的	-11.3947
我弟弟	-11.3951
vativatiyana	-11.3999
時候	-11.4028
raviya	-11.4036
了他的家	-11.4045
kutrekutr	-11.4051
▁miki	-11.4066
ul	-11.4067
▁mata	-11.4074
lungun	-11.41
想吃	-11.4114
elrepa	-11.4119
家的	-11.4153
我學	-11.4215
wang	-11.4234
是大學	-11.4241
▁tre	-11.4256
來玩	-11.4288
▁mel	-11.43
買菜	-11.4319
▁uwaitras	-11.4333
比我	-11.4351
▁mita	-11.4352
小後	-11.4353
台灣原住民	-11.4357
kayan	-11.4358
▁mer	-11.4367
裡還有	-11.4378
都喜歡	-11.4379
巴拉冠的	-11.4405
的就是	-11.4418
vuk	-11.4418
是一	-11.4432
人們	-11.4437
我們想	-11.4442
dan	-11.4446
豐盛	-11.4451
daulr	-11.4468
舞會時	-11.4473
我們的家	-11.4488
稱謂	-11.4488
還很	-11.4492
有個	-11.4511
到一個	-11.4528
▁si	-11.4532
ting	-11.4534
namun	-11.4545
的族群	-11.4558
trek	-11.4595
請問哪	-11.4609
melr	-11.4617
她的	-11.4632
kirungetr	-11.4635
山羊	-11.464
atratre	-11.4642
帽子的	-11.4644
▁temuwa	-11.4661
kasi	-11.4661
布農	-11.469
ud	-11.4698
兩把	-11.471
一起玩	-11.4733
ilang	-11.4746
獵獲敵首	-11.4747
▁are	-11.476
ranga	-11.4771
trepa	-11.4771
kurava	-11.4774
雞隻者	-11.48
nayan	-11.4801
emavu	-11.4807
▁sen	-11.483
urin	-11.4842
ratr	-11.4848
了一個	-11.487
kivangavang	-11.4885
打算	-11.4889
utut	-11.4911
給他	-11.4923
▁mutrungul	-11.4928
個小孩	-11.4933
puwapuway	-11.4935
▁tatel	-11.4954
pasek	-11.497
去玩	-11.4987
ile	-11.5004
姐妹	-11.5009
是卑南族	-11.5021
的傳統習俗非常	-11.5031
vit	-11.5036
ngis	-11.5048
排灣	-11.505
▁pate	-11.5052
一台	-11.5059
tevas	-11.5067
的家族	-11.5078
maanay	-11.5081
我聽	-11.5087
十三	-11.5088
向他	-11.5089
:0	-11.5092
saharan	-11.5095
你都不	-11.5103
▁sas	-11.5115
二月	-11.5125
palizing	-11.5133
uwaatreng	-11.5139
riyan	-11.5159
▁salranga	-11.5159
avul	-11.5169
有那麼	-11.5171
給族人	-11.5198
tuh	-11.5199
住院	-11.5202
▁karese	-11.5206
語教材	-11.5221
uvu	-11.5227
uwazangiya	-11.5239
upi	-11.524
salem	-11.5241
再看	-11.525
下午去	-11.5253
har	-11.5263
時就	-11.5279
真是	-11.528
這麼	-11.5283
valisen	-11.5284
父母不再	-11.5287
晚上天	-11.5293
valrayan	-11.5293
煮了很	-11.5295
魚網	-11.5303
我們到那	-11.5306
kuwatrengan	-11.5307
ula	-11.5308
g	-11.5314
我們族人	-11.5329
vavati	-11.533
▁vinavalray	-11.5338
她是我	-11.5345
▁kikarukarun	-11.5346
▁mid	-11.5351
▁pungulr	-11.5351
▁“'	-11.5374
▁mikinikarun	-11.5388
idi	-11.5401
身之	-11.5403
zek	-11.5428
冠	-11.5428
瓶	-11.5429
後由	-11.5432
aip	-11.5432
aresan	-11.5451
人從	-11.5452
▁Pi	-11.547
食物的	-11.5471
zekalr	-11.5472
taranapaw	-11.5483
eva	-11.55
ngiya	-11.5508
裡的	-11.5517
elu	-11.5537
習製作	-11.5543
▁waarak	-11.5555
我只	-11.5564
ringitr	-11.5564
部分	-11.5579
出了	-11.5588
▁kakuwatreng	-11.5591
pase	-11.5602
elre	-11.5633
sasenay	-11.5652
▁r	-11.5659
一起吃飯	-11.5661
pinu	-11.5671
的山	-11.5672
的東	-11.5676
itrul	-11.569
kuwani	-11.5691
為初鹿	-11.571
iw	-11.5713
十四	-11.5717
搬到	-11.5717
▁vake	-11.5722
iziyu	-11.573
pasala	-11.5739
傳統文化	-11.5742
年輕的	-11.5755
lrev	-11.5756
顆	-11.5764
daman	-11.5768
之中	-11.5771
alrai	-11.5773
▁demada	-11.5774
▁dada	-11.5779
akawud	-11.5785
好好	-11.5794
的名字是	-11.5798
過了	-11.5805
叮嚀	-11.5809
▁meli	-11.582
部落與	-11.5832
蒼	-11.5846
ase	-11.5861
做什麼的	-11.5864
azekalran	-11.5864
▁mukeze	-11.5864
valiyan	-11.5878
turusan	-11.588
去了	-11.588
太好了	-11.5887
也好	-11.5893
kuku	-11.5894
慢	-11.5895
▁vina	-11.5906
tralun	-11.5906
▁parek	-11.5906
的女朋友	-11.5916
每天	-11.5916
他們很	-11.592
zan	-11.5948
看顧小米	-11.5954
奶奶煮	-11.5957
問題	-11.5963
muwarak	-11.5973
要用	-11.5976
semenaya	-11.5982
也因	-11.5991
away	-11.5994
▁Ma	-11.5998
vativatiyan	-11.5999
祭祀及	-11.5999
告訴我	-11.6005
你好久	-11.6005
▁ziy	-11.6008
kaadawilr	-11.6026
semuli	-11.6029
etan	-11.6032
kaud	-11.6032
siyu	-11.6034
liyusan	-11.6044
pakunamun	-11.6046
的青年	-11.6047
穿上	-11.6057
憶中	-11.6071
mupang	-11.6073
要取	-11.6073
在該	-11.6074
▁13	-11.6075
kimazayar	-11.6081
kuwarelrang	-11.6083
zayazayara	-11.6084
pakarun	-11.6084
kawi	-11.6085
kaway	-11.6088
truwalr	-11.609
ketrivi	-11.609
uwaludus	-11.6094
kinata	-11.6094
ureput	-11.6094
traliya	-11.6095
purevu	-11.6099
zidēnsiya	-11.6103
B	-11.6111
妹	-11.6114
temuwamuwan	-11.6119
ziyazi	-11.6122
說卑南語	-11.6123
vavina	-11.6124
aresenenganengan	-11.6126
anc	-11.6126
vulraw	-11.6126
semavalr	-11.6129
kinikarunan	-11.6129
的原	-11.6135
naniwan	-11.6135
arekez	-11.6135
emel	-11.6145
muzangi	-11.6147
沒來	-11.6147
你每天	-11.6149
puwalrepus	-11.615
pinakamelri	-11.6152
tema	-11.6161
valruvalrur	-11.6168
做紀	-11.6168
那可以	-11.6171
lraza	-11.6175
melilru	-11.6177
purema	-11.6179
Valangaw	-11.6181
panini	-11.6186
▁kalramalraman	-11.6186
物者	-11.6188
muzangiya	-11.6188
▁mararenga	-11.6188
物之	-11.619
miraw	-11.6194
便一	-11.6195
Taiwan	-11.6195
zeketr	-11.6201
kemirungetr	-11.6202
male	-11.6202
eretr	-11.6205
pakituvangsar	-11.6209
murepureput	-11.6209
venetratrili	-11.6209
kakawukawud	-11.6209
kautrerahan	-11.6209
kinaulepan	-11.6209
kingkinger	-11.6209
kemangkang	-11.6209
mulemuled	-11.6209
trematruwalr	-11.6209
parekudakuda	-11.621
temengez	-11.621
kinaveras	-11.621
kanatal	-11.621
fukuing	-11.621
ventrili	-11.621
kiyatrevung	-11.621
purikana	-11.621
semasenay	-11.621
確	-11.6211
temamaku	-11.6211
Kacaw	-11.6211
Sezik	-11.6211
makalruwatr	-11.6212
meringring	-11.6212
hitay	-11.6213
matrepu	-11.6213
variyu	-11.6215
lavat	-11.6216
muvii	-11.6217
lralritekan	-11.6218
niliputr	-11.6218
Ari	-11.6221
impis	-11.6224
kanizu	-11.6226
penalisi	-11.6227
arelra	-11.6229
temaramaw	-11.6229
marekazuwa	-11.6229
dawdawan	-11.623
kinasahar	-11.623
pakirev	-11.6232
tamana	-11.6232
kaimaranan	-11.6233
▁」	-11.6233
semalem	-11.6233
全家人	-11.6233
tratrungulran	-11.6234
piningayiyan	-11.6235
kinitralunan	-11.6235
palalisiyan	-11.6236
pusavak	-11.6236
sayarawang	-11.6236
satraliyan	-11.6236
matengetengez	-11.6236
pidawariyan	-11.6236
kakawangan	-11.6237
Paywan	-11.6237
koyēng	-11.6238
daygak	-11.6238
piyano	-11.6238
kisiya	-11.6238
liyokang	-11.6238
puwatremel	-11.6238
kudumu	-11.6238
melranguy	-11.6239
kakayanan	-11.6239
kadumu	-11.6239
kayakay	-11.6239
sizir	-11.624
kinayanan	-11.624
tutak	-11.624
ika	-11.6241
pinupana	-11.6241
iyaturu	-11.6242
wariwari	-11.6242
paliyuliyus	-11.6243
Tayhok	-11.6243
pinitrauwan	-11.6243
muzangizangi	-11.6243
puwarikanan	-11.6243
把頭	-11.6244
pareveliyas	-11.6244
valalisen	-11.6244
temuwakutra	-11.6245
puwalumayan	-11.6245
pavilung	-11.6246
Katripulr	-11.6246
hikuki	-11.6246
marakazuwazuwan	-11.6246
kasahasahar	-11.6246
venavati	-11.6246
semasing	-11.6246
kenaw	-11.6247
zazek	-11.6247
kasungalan	-11.6247
Matreli	-11.6247
vangangesaran	-11.6247
piningaiyan	-11.6247
puzanum	-11.6247
maruwadi	-11.6247
piniangeran	-11.6247
temamataw	-11.6247
meniwan	-11.6248
talrevaw	-11.6248
kiumaumalr	-11.6248
Pinaseki	-11.6248
uzazangiyan	-11.6249
biyoing	-11.6249
▁pak	-11.6249
kaidaidan	-11.6249
kiyarais	-11.6249
dinaway	-11.625
mangayaw	-11.625
kantrini	-11.625
kemezeng	-11.625
temenun	-11.6251
kakara	-11.6251
pentrira	-11.6252
parasan	-11.6252
tatusuk	-11.6252
luvuk	-11.6253
takakesiyan	-11.6253
venali	-11.6254
venavalray	-11.6254
awatran	-11.6254
能回	-11.6255
veras	-11.6255
kavangavangan	-11.6255
kawkaw	-11.6256
malemu	-11.6256
Amis	-11.6256
payas	-11.6256
kiyukay	-11.6256
lrengaw	-11.6256
takilr	-11.6256
patavang	-11.6257
bas	-11.6257
kawikawiyan	-11.6257
temalaulep	-11.6257
kelun	-11.6258
來我們	-11.6259
bi	-11.6261
前不	-11.6262
mipangasip	-11.6262
▁muetri	-11.6263
marengai	-11.6265
原住民族語	-11.6267
kazekalran	-11.6268
valru	-11.6268
mapiyapiya	-11.6271
mikavang	-11.6274
為族	-11.6274
Saw	-11.6275
musama	-11.6277
dalilr	-11.6278
的晚餐	-11.6279
viruwa	-11.6281
kuwaleng	-11.6282
pukazuwa	-11.6284
save	-11.6285
tawlriyulr	-11.6287
terukuk	-11.6293
kuwarelrangan	-11.6295
trengan	-11.6295
lavang	-11.6296
valruvalruran	-11.6296
ziyanay	-11.6297
你要	-11.6299
▁turuku	-11.6299
muvalis	-11.6302
▁luvit	-11.6304
pisu	-11.6307
kairayan	-11.6312
個部落	-11.6313
wakalr	-11.6314
venaaw	-11.6314
sasenayan	-11.6315
腐	-11.6316
Ha	-11.6316
pareka	-11.6325
在住	-11.6326
ekun	-11.6327
masalr	-11.6328
11	-11.6329
mekana	-11.6331
ngunin	-11.6337
demadaw	-11.6337
tawki	-11.634
▁kakite	-11.6341
vuevu	-11.6343
mukuwatreng	-11.6344
pakalrang	-11.6346
pakunamuna	-11.6347
釣具	-11.6349
後才	-11.635
kinapazang	-11.6351
maulep	-11.6353
▁hemilrehilr	-11.6356
wasay	-11.6357
aidan	-11.6365
的古謠是	-11.6366
最珍貴	-11.6368
並重	-11.637
mananay	-11.6372
lruwa	-11.6376
可以看	-11.6377
承辦	-11.6384
學習的	-11.6384
在哪	-11.6384
是哪	-11.639
kē	-11.639
是如果沒有	-11.6394
▁lata	-11.6397
的族人	-11.6406
kakuwa	-11.6407
aitrul	-11.6408
去蘭嶼	-11.6409
melak	-11.6412
▁peniy	-11.6412
我們也	-11.6412
我們有	-11.6418
hay	-11.6421
孩	-11.6423
ayhuwan	-11.6428
vangaw	-11.6439
arauvan	-11.6441
paze	-11.6443
洗手	-11.6446
awatr	-11.6448
▁pentrir	-11.6452
lrepus	-11.6453
mirawa	-11.6454
而言	-11.6455
天氣好	-11.6457
trin	-11.6462
kaniyam	-11.6462
在利嘉	-11.6464
幾乎	-11.6466
3:	-11.6466
viya	-11.6466
suru	-11.6467
裡生	-11.6468
你們會	-11.6468
kanmu	-11.6468
是明天	-11.6469
padu	-11.647
vatav	-11.6474
muwaraka	-11.6479
ziki	-11.6481
的衣	-11.6483
puran	-11.6484
看顧	-11.6485
lralrakan	-11.6492
rungetr	-11.6493
本人	-11.6496
量有	-11.65
sahasahar	-11.65
拍	-11.6502
鮮美	-11.6504
▁kiyalrima	-11.6504
鳳梨	-11.6504
metr	-11.6505
客氣	-11.6505
是卑南族人	-11.6509
kudayan	-11.651
hasaran	-11.651
deru	-11.651
▁ngiza	-11.6513
kuwi	-11.6514
yrang	-11.6516
夠	-11.6519
記得帶	-11.652
罪惡	-11.652
機車	-11.6522
外套	-11.6522
命	-11.6524
liyus	-11.6525
ten	-11.6525
tehayan	-11.6526
有用	-11.6527
vangesar	-11.6531
liyay	-11.6534
一起吃	-11.6534
備用	-11.6536
炎熱	-11.6536
敵	-11.6536
rum	-11.6538
atez	-11.6539
謊的	-11.6539
trekip	-11.6539
希望能	-11.6539
▁velretrengan	-11.654
服飾	-11.6541
▁kinasayhu	-11.6542
可憐	-11.6543
意義用途	-11.6543
lreve	-11.6544
▁semasahar	-11.6544
turahanan	-11.6546
kuwayanan	-11.6547
的傳統服	-11.6547
大家一起來	-11.6547
duk	-11.6548
可以收成	-11.6548
▁194	-11.6549
可以知道	-11.6549
跌倒	-11.6549
最少的	-11.6549
▁papetri	-11.6551
marema	-11.6552
得可以	-11.6552
遲到	-11.6552
忘了帶筆	-11.6552
最喜歡	-11.6553
kipa	-11.6553
taina	-11.6553
尊	-11.6553
任	-11.6554
▁kinalrazam	-11.6554
太貴	-11.6554
uzangizangi	-11.6554
聚	-11.6554
何	-11.6554
triran	-11.6556
liyuliyus	-11.6556
搭捷運	-11.6557
▁lep	-11.6557
kalramalrama	-11.6558
▁wangl	-11.6559
謝老師	-11.6559
雨停	-11.656
liputr	-11.6562
畢	-11.6563
灣	-11.6563
嚴	-11.6563
nggo	-11.6565
恩	-11.6565
趣	-11.6565
uturarahan	-11.6565
tēn	-11.6565
evel	-11.6565
掃	-11.6566
就不會	-11.6566
客	-11.6566
喪	-11.6566
令	-11.6566
sawariya	-11.6566
重要的	-11.6567
桃	-11.6567
果	-11.6567
准	-11.6567
互開玩笑	-11.6567
象	-11.6568
鹿	-11.6568
需	-11.6568
Ta	-11.6569
ludu	-11.6569
簍	-11.6569
vales	-11.6569
迷	-11.6569
閩南	-11.6569
uwatremel	-11.657
支	-11.657
muvaka	-11.657
kawikawi	-11.657
潑	-11.6571
薪	-11.6571
房	-11.6571
容	-11.6571
litrung	-11.6571
喊	-11.6571
vaavaaw	-11.6571
過世	-11.6571
袋	-11.6572
之間	-11.6572
遭	-11.6572
青	-11.6572
海邊	-11.6572
帽	-11.6572
睜	-11.6572
杯	-11.6572
▁25	-11.6572
候	-11.6573
angasip	-11.6573
etrev	-11.6573
頂	-11.6573
置	-11.6573
音樂課	-11.6573
戶	-11.6573
套	-11.6573
▁vasika	-11.6573
笑容	-11.6573
豬	-11.6574
祈	-11.6574
ba	-11.6574
▁malimali	-11.6574
很久沒	-11.6574
歸	-11.6574
跨	-11.6574
反	-11.6574
takakesi	-11.6574
藏	-11.6574
舌	-11.6574
lrangis	-11.6575
務	-11.6575
免	-11.6575
內	-11.6575
婦	-11.6575
▁Payra	-11.6575
lrutrelrutr	-11.6575
kemakawa	-11.6575
kitrevung	-11.6575
arekudakuda	-11.6575
keliked	-11.6575
兜	-11.6575
姐	-11.6575
充	-11.6575
lehetr	-11.6575
界	-11.6576
掀	-11.6576
uhusan	-11.6576
附	-11.6576
竊	-11.6576
超	-11.6576
他人財物	-11.6576
貪圖	-11.6576
執	-11.6576
廁	-11.6576
享	-11.6576
響	-11.6576
墾	-11.6576
我頭好	-11.6576
昨	-11.6576
elresap	-11.6576
雅	-11.6576
憐	-11.6576
漸	-11.6576
穢	-11.6576
喜歡秋	-11.6576
贅	-11.6577
聯絡	-11.6577
泰雅	-11.6577
思	-11.6577
貴	-11.6577
典	-11.6577
晃	-11.6577
雕	-11.6577
攜	-11.6577
扮	-11.6577
迎	-11.6577
訴	-11.6577
驗	-11.6577
宗	-11.6577
宣	-11.6577
負	-11.6577
音	-11.6577
保障	-11.6577
炭	-11.6577
併	-11.6577
堤	-11.6577
堵	-11.6577
塞	-11.6577
氾	-11.6577
淹	-11.6577
潰	-11.6577
操	-11.6577
館	-11.6577
便宜一	-11.6577
鬧	-11.6577
殖	-11.6577
繩索	-11.6577
uwateh	-11.6578
瞭	-11.6578
盡	-11.6578
標	-11.6578
範	-11.6578
探	-11.6578
插	-11.6578
墓	-11.6578
醃	-11.6578
糕	-11.6578
朝	-11.6578
吟	-11.6578
止	-11.6578
迴	-11.6578
郎	-11.6578
緻	-11.6578
趨	-11.6578
驟	-11.6578
龍	-11.6578
kiyakarukarun	-11.6578
豐	-11.6578
仰	-11.6578
題	-11.6578
識	-11.6578
撬	-11.6578
狂	-11.6578
寶桑	-11.6578
須	-11.6578
奇	-11.6578
去除穢氣	-11.6578
挑	-11.6578
雀	-11.6578
係	-11.6578
鞦韆	-11.6578
餅	-11.6578
助	-11.6578
鍊	-11.6578
討	-11.6578
兼	-11.6578
寬	-11.6578
緩	-11.6578
欣	-11.6578
獸	-11.6578
凝	-11.6578
島	-11.6578
收穫	-11.6578
朵	-11.6578
除草祭	-11.6578
陽	-11.6578
南邊	-11.6578
擊	-11.6578
載	-11.6578
乏	-11.6578
儼	-11.6578
宋	-11.6578
恐	-11.6578
恭	-11.6578
撰	-11.6578
杉	-11.6578
桐	-11.6578
棍	-11.6578
濁	-11.6578
羅	-11.6578
莊	-11.6578
葵	-11.6578
貼	-11.6578
訓	-11.6578
Is	-11.6578
鼓	-11.6578
金	-11.6578
偶爾	-11.6578
束	-11.6578
的鮮奶	-11.6578
敞	-11.6578
聘	-11.6578
朋	-11.6578
mula	-11.6578
困	-11.6578
厲	-11.6578
泥	-11.6578
備的	-11.6578
療	-11.6578
蜜	-11.6578
Lika	-11.6579
慣	-11.6579
暖	-11.6579
段	-11.6579
予	-11.6579
佩	-11.6579
俗	-11.6579
值	-11.6579
冀	-11.6579
囚	-11.6579
壑	-11.6579
寧	-11.6579
征	-11.6579
德	-11.6579
懲	-11.6579
暢	-11.6579
汙	-11.6579
燦	-11.6579
珠	-11.6579
琉	-11.6579
璃	-11.6579
甕	-11.6579
租	-11.6579
笆	-11.6579
維	-11.6579
芙	-11.6579
貫	-11.6579
遂	-11.6579
鏽	-11.6579
賓	-11.6579
增	-11.6579
政	-11.6579
策	-11.6579
繩索陷阱	-11.6579
騙	-11.6579
梅	-11.6579
renarenaza	-11.6579
▁zinekalr	-11.6579
胡	-11.6579
還我錢	-11.6579
厚	-11.6579
▁Sēc	-11.6579
媽	-11.6579
耐	-11.6579
不要忘	-11.6579
匙	-11.6579
史	-11.6579
喂	-11.6579
域	-11.6579
暇	-11.6579
灑	-11.6579
脆	-11.6579
菁	-11.6579
蓮	-11.6579
蔭	-11.6579
陣	-11.6579
姐姐	-11.6579
委	-11.6579
欺	-11.6579
獵獲	-11.6579
盪	-11.6579
蘿蔔	-11.6579
謹	-11.6579
慎	-11.6579
琴	-11.6579
罵	-11.6579
搭高鐵	-11.6579
王	-11.6579
缺	-11.6579
武器	-11.6579
椒	-11.6579
贈	-11.6579
博	-11.6579
拼	-11.6579
鍬	-11.6579
C	-11.6579
Va	-11.6579
W	-11.6579
bun	-11.6579
~	-11.6579
▁Tamalr	-11.6579
〇	-11.6579
乃	-11.6579
乘	-11.6579
仇	-11.6579
介	-11.6579
仿	-11.6579
佑	-11.6579
佔	-11.6579
侵	-11.6579
俊	-11.6579
倆	-11.6579
値	-11.6579
側	-11.6579
傻	-11.6579
儘	-11.6579
兆	-11.6579
兇	-11.6579
剁	-11.6579
剖	-11.6579
劈	-11.6579
勒	-11.6579
勻	-11.6579
匹	-11.6579
同學一起看	-11.6579
吠	-11.6579
吩	-11.6579
咀	-11.6579
咖	-11.6579
哄	-11.6579
唇	-11.6579
唬	-11.6579
啃	-11.6579
啄	-11.6579
啡	-11.6579
喘	-11.6579
嗯	-11.6579
噎	-11.6579
嚏	-11.6579
嚕	-11.6579
嚥	-11.6579
嚼	-11.6579
囉	-11.6579
囊	-11.6579
圾	-11.6579
址	-11.6579
坦	-11.6579
垂	-11.6579
垢	-11.6579
塵	-11.6579
墮	-11.6579
奏	-11.6579
奮	-11.6579
姓	-11.6579
娃	-11.6579
孕	-11.6579
孝	-11.6579
宇	-11.6579
宰	-11.6579
宵	-11.6579
尿	-11.6579
局	-11.6579
屁	-11.6579
屹	-11.6579
岔	-11.6579
峭	-11.6579
峰	-11.6579
峻	-11.6579
峽	-11.6579
崇	-11.6579
嶺	-11.6579
巒	-11.6579
川	-11.6579
巢	-11.6579
席	-11.6579
弄	-11.6579
循	-11.6579
忠	-11.6579
怔	-11.6579
怖	-11.6579
恆	-11.6579
恰	-11.6579
悶	-11.6579
惠	-11.6579
愉	-11.6579
態	-11.6579
憎	-11.6579
憫	-11.6579
懼	-11.6579
戮	-11.6579
戲	-11.6579
扇	-11.6579
扭	-11.6579
扯	-11.6579
抖	-11.6579
抗	-11.6579
拂	-11.6579
拚	-11.6579
拳	-11.6579
挨	-11.6579
振	-11.6579
挺	-11.6579
捷	-11.6579
捻	-11.6579
掐	-11.6579
掩	-11.6579
揉	-11.6579
揍	-11.6579
揚	-11.6579
損	-11.6579
搓	-11.6579
搔	-11.6579
搗	-11.6579
搥	-11.6579
摺	-11.6579
撐	-11.6579
撩	-11.6579
撫	-11.6579
攀	-11.6579
攬	-11.6579
斗	-11.6579
斧	-11.6579
旦	-11.6579
映	-11.6579
晴	-11.6579
智	-11.6579
晾	-11.6579
李	-11.6579
杵	-11.6579
枕	-11.6579
柑	-11.6579
染	-11.6579
栽	-11.6579
桶	-11.6579
械	-11.6579
棟	-11.6579
棺	-11.6579
榴	-11.6579
槌	-11.6579
樸	-11.6579
檜	-11.6579
款	-11.6579
歇	-11.6579
歉	-11.6579
氓	-11.6579
池	-11.6579
污	-11.6579
沉	-11.6579
沙	-11.6579
泉	-11.6579
泊	-11.6579
泌	-11.6579
泡	-11.6579
津	-11.6579
洶	-11.6579
浸	-11.6579
涉	-11.6579
涎	-11.6579
涕	-11.6579
涵	-11.6579
淒	-11.6579
渣	-11.6579
湃	-11.6579
湊	-11.6579
溼	-11.6579
滋	-11.6579
滾	-11.6579
漆	-11.6579
演	-11.6579
漫	-11.6579
漬	-11.6579
漱	-11.6579
漾	-11.6579
漿	-11.6579
潔	-11.6579
濃	-11.6579
瀑	-11.6579
灌	-11.6579
烹	-11.6579
焚	-11.6579
煥	-11.6579
熊	-11.6579
熬	-11.6579
燃	-11.6579
燉	-11.6579
燻	-11.6579
爸的	-11.6579
牌	-11.6579
犬	-11.6579
猜	-11.6579
瑟	-11.6579
瑰	-11.6579
畜	-11.6579
畝	-11.6579
疑	-11.6579
疤	-11.6579
痰	-11.6579
皂	-11.6579
盾	-11.6579
眠	-11.6579
眶	-11.6579
眷	-11.6579
睏	-11.6579
瞄	-11.6579
瞎	-11.6579
矚	-11.6579
矛	-11.6579
砌	-11.6579
碎	-11.6579
碴	-11.6579
碾	-11.6579
祝禱	-11.6579
祥	-11.6579
移	-11.6579
稀	-11.6579
穗	-11.6579
穩	-11.6579
窮	-11.6579
窺	-11.6579
竄	-11.6579
端	-11.6579
筍	-11.6579
筷	-11.6579
箕	-11.6579
篩	-11.6579
籍	-11.6579
粥	-11.6579
糖	-11.6579
糠	-11.6579
絡	-11.6579
繪	-11.6579
羸	-11.6579
翅	-11.6579
翌	-11.6579
老師今天要帶	-11.6579
耍	-11.6579
聆	-11.6579
聰	-11.6579
肋	-11.6579
肘	-11.6579
肝	-11.6579
肩	-11.6579
肯	-11.6579
肺	-11.6579
胎	-11.6579
胞	-11.6579
腋	-11.6579
腎	-11.6579
腔	-11.6579
腺	-11.6579
膛	-11.6579
膿	-11.6579
舍	-11.6579
舔	-11.6579
芽	-11.6579
茄	-11.6579
莓	-11.6579
菇	-11.6579
萊	-11.6579
蕃	-11.6579
蕉	-11.6579
蕎	-11.6579
蕗	-11.6579
蕭	-11.6579
薄	-11.6579
薯	-11.6579
藷	-11.6579
蘇	-11.6579
蘭	-11.6579
虧	-11.6579
蚓	-11.6579
蚤	-11.6579
蚯	-11.6579
蚱	-11.6579
蛛	-11.6579
蜘	-11.6579
蜢	-11.6579
蝙	-11.6579
蝠	-11.6579
蝨	-11.6579
螂	-11.6579
螃	-11.6579
螺	-11.6579
蟑	-11.6579
蟬	-11.6579
蠅	-11.6579
衡	-11.6579
衰	-11.6579
衷	-11.6579
補	-11.6579
複	-11.6579
覽	-11.6579
詢	-11.6579
誡	-11.6579
諦	-11.6579
諧	-11.6579
謾	-11.6579
譯	-11.6579
谷	-11.6579
豹	-11.6579
販	-11.6579
贛	-11.6579
趴	-11.6579
蹂	-11.6579
蹦	-11.6579
蹲	-11.6579
躪	-11.6579
軒	-11.6579
軟	-11.6579
輔	-11.6579
辜	-11.6579
辭	-11.6579
迫	-11.6579
醬	-11.6579
鈍	-11.6579
鈔	-11.6579
鈴鐺發出響聲	-11.6579
銷	-11.6579
鋸	-11.6579
鍾	-11.6579
鎚	-11.6579
鏟	-11.6579
閃	-11.6579
降	-11.6579
限	-11.6579
陡	-11.6579
雉	-11.6579
鞋	-11.6579
額	-11.6579
飧	-11.6579
餌	-11.6579
饋	-11.6579
駛	-11.6579
駝	-11.6579
鬍	-11.6579
鬚	-11.6579
魄	-11.6579
魔	-11.6579
鰭	-11.6579
鳩	-11.6579
鴉	-11.6579
鴨	-11.6579
鴿	-11.6579
鵝	-11.6579
麴	-11.6579
齊	-11.6579
齋	-11.6579
齒	-11.6579
龐	-11.6579
龜	-11.6579
makeze	-11.6579
固	-11.6579
In	-11.6579
amham	-11.6579
促	-11.6579
唉	-11.6579
垃	-11.6579
懸	-11.6579
暫	-11.6579
有裝扮的	-11.6579
杓	-11.6579
汲	-11.6579
漁	-11.6579
澎	-11.6579
濾	-11.6579
瓢	-11.6579
舀	-11.6579
遮	-11.6579
郊	-11.6579
閉	-11.6579
雌	-11.6579
馬智禮	-11.6579
patavan	-11.6579
耐飢	-11.6579
parepauwa	-11.6579
省	-11.6579
哎	-11.6579
唔	-11.6579
幣	-11.6579
幽	-11.6579
悲	-11.6579
敏	-11.6579
昧	-11.6579
棵	-11.6579
殷	-11.6579
淚	-11.6579
澈	-11.6579
犧	-11.6579
猿	-11.6579
眺	-11.6579
磚	-11.6579
篳	-11.6579
縷	-11.6579
誇	-11.6579
遐	-11.6579
遙	-11.6579
邈	-11.6579
ikelru	-11.6579
savun	-11.6579
材料	-11.6579
鋼	-11.6579
▁mizid	-11.6579
聲響	-11.6579
又大又	-11.6579
son	-11.6579
叢	-11.6579
哺	-11.6579
填	-11.6579
峨	-11.6579
巍	-11.6579
廨	-11.6579
彩	-11.6579
惱	-11.6579
擅	-11.6579
椽	-11.6579
泛	-11.6579
淋	-11.6579
湛	-11.6579
畏	-11.6579
瞰	-11.6579
窄	-11.6579
筋	-11.6579
績	-11.6579
肢	-11.6579
華	-11.6579
蒙	-11.6579
逼	-11.6579
駐	-11.6579
鬥	-11.6579
ulringulr	-11.6579
gulr	-11.6579
收藏	-11.6579
侍	-11.6579
倘	-11.6579
勇	-11.6579
城	-11.6579
塗	-11.6579
巨	-11.6579
役	-11.6579
徙	-11.6579
敞褲	-11.6579
昔	-11.6579
晉	-11.6579
杖	-11.6579
桁	-11.6579
榔	-11.6579
添	-11.6579
獸夾	-11.6579
糧	-11.6579
糰	-11.6579
緯	-11.6579
脊	-11.6579
蕨	-11.6579
覆	-11.6579
誠	-11.6579
趁	-11.6579
跟旁邊同學	-11.6579
銀	-11.6579
錘	-11.6579
seker	-11.6579
mawmaw	-11.658
託	-11.658
敵首	-11.658
mamataw	-11.658
伙	-11.658
克	-11.658
凍	-11.658
意思	-11.658
utrerah	-11.658
造物者	-11.658
樣子的	-11.658
貴重	-11.658
▁maruke	-11.658
藉	-11.658
uzazangi	-11.658
民國	-11.658
式繩索陷阱	-11.6581
tamaku	-11.6581
裝扮	-11.6581
搭什麼	-11.6581
upiz	-11.6581
lretreng	-11.6581
除穢	-11.6581
比我爸爸年	-11.6581
吟唱古	-11.6581
擔任祭司的	-11.6581
tivatiyan	-11.6581
Simu	-11.6581
keret	-11.6581
98	-11.6582
kalikali	-11.6582
何處	-11.6582
asevan	-11.6582
裡種菜	-11.6582
時由長者	-11.6582
車來的	-11.6582
rekamelri	-11.6582
ngadir	-11.6582
家戶	-11.6583
▁Pinas	-11.6584
就不	-11.6584
▁tiha	-11.6584
竹製	-11.6584
80	-11.6584
火車站	-11.6584
骨架	-11.6585
菜可以收成了	-11.6585
zeme	-11.6585
trengal	-11.6585
公斤	-11.6585
失蹤	-11.6585
較高	-11.6585
去醫院	-11.6585
緊急	-11.6585
祖父母的名字	-11.6586
歡唱	-11.6586
電視	-11.6586
小女	-11.6586
也沒	-11.6586
karap	-11.6586
造物	-11.6586
高雄	-11.6587
大約一	-11.6587
diyu	-11.6587
觀光	-11.6588
公車	-11.6588
桃子	-11.6589
ules	-11.6589
198	-11.6589
雞隻	-11.6589
的笑容	-11.659
itayan	-11.659
八社	-11.659
兩隻	-11.6591
▁kimaza	-11.6591
還需要	-11.6591
▁oto	-11.6591
Sam	-11.6591
esan	-11.6591
日據時	-11.6591
運動	-11.6591
akesiyan	-11.6591
砍取	-11.6592
到海邊	-11.6592
藍色	-11.6592
avut	-11.6592
拍了	-11.6592
semela	-11.6593
任的	-11.6594
在南	-11.6595
原本	-11.6595
要離開	-11.6595
ēnsiy	-11.6596
sapasa	-11.6596
族人盛	-11.6596
由長者	-11.6597
急事	-11.6597
alriwang	-11.6598
每一	-11.6598
alunan	-11.6598
地瓜葉	-11.6598
tuwak	-11.6598
用途	-11.6601
▁kawar	-11.6601
我也沒	-11.6603
得太	-11.6603
我們部落的	-11.6603
kamang	-11.6603
eres	-11.6604
族人的傳統	-11.6604
kulriya	-11.6605
爸爸今年	-11.6605
聚集在	-11.6606
媽媽小姐	-11.6606
karatr	-11.6607
elrutr	-11.6607
收成	-11.6607
vavay	-11.6607
傳統料理	-11.6607
和騎	-11.6608
ciyo	-11.6608
水槍	-11.6609
iring	-11.6609
elrus	-11.6609
veli	-11.6609
小石	-11.661
▁raha	-11.661
十五	-11.661
到永遠	-11.6612
可以收成了	-11.6613
全家	-11.6614
各樣	-11.6614
▁patik	-11.6615
那隻	-11.6615
去觀	-11.6616
來台	-11.6616
部落的男人	-11.6616
又美	-11.6616
pulud	-11.6617
utati	-11.6617
idir	-11.6618
的意義用途	-11.6618
▁katupa	-11.6618
▁lruwat	-11.6619
rekes	-11.662
了所有的	-11.662
死者	-11.662
walruwan	-11.6622
idad	-11.6623
有興趣	-11.6623
ungulr	-11.6624
nipi	-11.6624
我也沒有	-11.6626
puur	-11.6626
棄了	-11.6626
ntrin	-11.6626
到更	-11.6627
▁pinaka	-11.6629
族的小孩	-11.6629
鹿角上	-11.663
trilraw	-11.663
kazuwazuwan	-11.663
marahan	-11.6631
著急	-11.6631
erus	-11.6632
房子的	-11.6632
▁vere	-11.6633
uwapatraran	-11.6635
vek	-11.6636
我們家有	-11.6636
▁marasayhu	-11.6636
帶錢	-11.6637
一代	-11.6637
也是卑南族	-11.6637
一代的	-11.6638
先行	-11.6638
少年在	-11.6638
一定會	-11.6639
來餵	-11.6639
我拍	-11.6641
是現	-11.6642
inta	-11.6642
iyav	-11.6642
約一	-11.6643
▁munayu	-11.6643
sin	-11.6643
▁San	-11.6644
▁liy	-11.6645
們和	-11.6647
dikaya	-11.6647
revay	-11.6647
tralu	-11.6648
keduk	-11.6648
的祭	-11.6651
utrawtra	-11.6652
▁hal	-11.6653
要搭	-11.6653
▁tawlri	-11.6653
的鳳梨	-11.6654
種菜	-11.6654
了數	-11.6655
第一	-11.6657
想找	-11.6659
madu	-11.6661
你什麼時候	-11.6661
大魚	-11.6662
開車去	-11.6662
▁hem	-11.6662
出聲	-11.6662
開的時候	-11.6662
pungaw	-11.6663
ipun	-11.6663
我沒有帶	-11.6663
大樹	-11.6664
▁karas	-11.6664
▁demaw	-11.6665
任何人	-11.6671
角上	-11.6674
請跟	-11.6675
是用	-11.6679
▁kinakaw	-11.6679
帶我們去	-11.6679
在承	-11.6679
vatr	-11.6679
這兩	-11.668
明年	-11.668
由家	-11.6683
所種	-11.6685
獵時	-11.6687
huy	-11.6687
從事	-11.6688
▁tinutra	-11.6688
的妹妹	-11.6688
不停	-11.6688
angavang	-11.6688
ungun	-11.6689
總是	-11.6691
iyavur	-11.6695
▁kurelra	-11.6697
田裡看顧	-11.6697
repida	-11.6698
天吧	-11.67
▁pakan	-11.6706
大約	-11.6707
▁vati	-11.671
ezan	-11.6711
akalrangan	-11.6712
成了	-11.6712
年開始	-11.6713
lale	-11.6717
多元	-11.6718
kasaema	-11.6718
時期	-11.672
▁zine	-11.6723
後還有	-11.6723
An	-11.6726
刀和	-11.6726
年前	-11.6728
vara	-11.673
akutr	-11.673
muwamu	-11.6731
的不多	-11.6731
我的哥哥	-11.6732
ematelr	-11.6732
樣的人	-11.6734
去叫	-11.6735
有別	-11.6736
rauv	-11.6737
壯的	-11.6738
黃色的	-11.6739
ayaraw	-11.6742
ngut	-11.6744
就可	-11.6745
很喜歡	-11.6746
你都	-11.6747
因為你	-11.6749
買蛋	-11.6754
有活	-11.6754
ayray	-11.6755
takung	-11.6755
karau	-11.6756
wlr	-11.6757
著爸爸	-11.6758
sulu	-11.676
malru	-11.6761
的現象	-11.6762
▁pasala	-11.6764
你把	-11.6769
▁nirang	-11.6769
▁maretr	-11.6771
trik	-11.6773
way	-11.6773
帶了	-11.678
rasi	-11.6785
marum	-11.6786
elran	-11.6791
都很	-11.6792
今天老師	-11.6792
我幫	-11.6798
物和食	-11.6798
活的	-11.6799
有舉行	-11.68
看到了	-11.6804
maliya	-11.6807
▁vavi	-11.6807
kara	-11.6809
rem	-11.6811
Ami	-11.6812
男女	-11.6817
部落裡	-11.6817
sis	-11.6817
uwad	-11.6818
跟他	-11.682
aves	-11.6823
個人是	-11.6825
人接	-11.6826
▁vetre	-11.6827
usar	-11.6828
▁taran	-11.6828
的牆	-11.6831
的僅	-11.6836
▁tarana	-11.6837
帶我們	-11.6838
傳說	-11.6839
你妹妹	-11.6841
打獵的	-11.6843
要入	-11.6844
業的	-11.6844
vuta	-11.6845
的古謠	-11.6846
的英	-11.6846
▁pinakamelri	-11.6846
不會腐	-11.6848
家中	-11.685
siyan	-11.6851
ko	-11.6852
▁temari	-11.6858
不喜歡	-11.6858
時候我	-11.6859
沒有看	-11.686
palri	-11.6863
▁val	-11.6866
vini	-11.6871
▁marevu	-11.6875
得很	-11.6879
atim	-11.688
kuzan	-11.6882
▁kil	-11.6883
的太	-11.6885
家有幾個	-11.6885
awisan	-11.6885
makaw	-11.6889
天就	-11.6889
的課	-11.6893
今天有	-11.6894
pinadang	-11.6896
雨了	-11.6897
很想	-11.6898
rawa	-11.6899
aliya	-11.6899
likap	-11.69
可以讓	-11.6903
了親	-11.6904
palre	-11.6905
etriran	-11.6905
inalri	-11.6913
▁vavina	-11.6917
mela	-11.692
ramiyan	-11.6921
不自	-11.6921
tav	-11.6923
到天	-11.6928
uwav	-11.6928
angalan	-11.6934
人也會	-11.6935
我跟你一	-11.6935
▁tinil	-11.6939
kinalra	-11.694
好痛	-11.6943
要帶	-11.6947
哪些	-11.695
車的	-11.6951
▁semi	-11.6955
ayawan	-11.6955
elranay	-11.6959
dangan	-11.6961
▁ule	-11.6962
sapu	-11.6962
民族的	-11.6964
awat	-11.6965
裡有	-11.6969
在各	-11.6969
會下	-11.6969
▁pisu	-11.6979
要如何	-11.6979
的很好	-11.6989
的親	-11.7007
家時	-11.701
▁muzangi	-11.7019
上山	-11.7019
▁kuwarelrang	-11.7022
musa	-11.7024
nem	-11.7025
uring	-11.703
vayan	-11.7031
祖母的	-11.7033
▁ngaw	-11.7033
我的爸爸是	-11.7035
nguwayan	-11.7043
您的	-11.7045
寫的	-11.7046
ising	-11.7048
的排	-11.7048
lretra	-11.7048
的食	-11.7049
arevu	-11.7051
kitr	-11.7051
▁kasa	-11.7054
人會	-11.7062
up	-11.7064
▁B	-11.7067
rangan	-11.7077
kat	-11.7077
美的	-11.7078
▁kipu	-11.7082
在自	-11.7084
和大	-11.7084
▁Yu	-11.7087
▁ketrivi	-11.7089
為他	-11.7094
matra	-11.7097
他對	-11.7099
的變	-11.7099
到女方家	-11.71
小時	-11.7101
▁kaira	-11.7102
arem	-11.7104
是學校	-11.711
的工	-11.7111
其在	-11.7111
Salr	-11.7113
所有的	-11.7114
▁purevu	-11.7115
liku	-11.7116
落的	-11.7126
lrisa	-11.7126
著一	-11.7144
還要	-11.7146
後會	-11.7146
法是	-11.7152
我把	-11.7152
inuhu	-11.7155
害人	-11.7156
要把	-11.7156
nget	-11.7156
的成	-11.7165
是媽媽	-11.7166
▁kaadawilr	-11.7169
elru	-11.7183
▁kinata	-11.7185
以來	-11.7185
ihu	-11.7186
學的	-11.7186
我買	-11.7196
了原住民	-11.7197
paw	-11.7208
▁paruwa	-11.7213
aziyazi	-11.7217
takul	-11.7219
ayas	-11.7223
▁puva	-11.7227
▁mupang	-11.7231
idan	-11.724
的家人	-11.7241
首的	-11.7247
掉了	-11.7252
有女	-11.7269
時不	-11.7273
不認識	-11.7277
是在	-11.7278
emen	-11.7279
族語的	-11.7283
▁pakunamuna	-11.7287
要下	-11.7287
▁se	-11.7301
那時	-11.731
這裡有	-11.7311
itrula	-11.7316
▁kamalrazam	-11.7317
▁minga	-11.7319
trangi	-11.7324
avuy	-11.7329
年的	-11.7333
dap	-11.7349
他會	-11.7352
買了	-11.7354
的主	-11.7354
的竹	-11.7357
所在	-11.7358
為人	-11.7359
那我們	-11.7376
同的	-11.7381
rah	-11.7388
物的	-11.7391
要休息	-11.7391
的木	-11.7397
semasaharana	-11.74
ekel	-11.7403
turi	-11.7406
▁aiy	-11.7412
了田	-11.7414
我請	-11.7426
的書	-11.7426
也要	-11.7429
treli	-11.743
的笑	-11.7437
再說	-11.744
uvan	-11.7451
▁pas	-11.7453
▁venal	-11.7453
的少女	-11.7455
在下	-11.746
裡了	-11.7463
▁mut	-11.7468
的原住民	-11.7474
kalal	-11.7474
是我的	-11.7487
uwatra	-11.7508
▁sava	-11.7516
▁int	-11.7531
我們會	-11.7532
▁kurel	-11.7532
pinutre	-11.7533
parev	-11.7544
▁imar	-11.7554
▁aeka	-11.7555
的歌	-11.7561
草的	-11.7562
的草	-11.7563
快回	-11.7565
▁male	-11.7566
▁vangavanga	-11.7575
zekalran	-11.7587
到一	-11.7596
rekasa	-11.7605
會好	-11.7628
▁muasa	-11.7629
etaw	-11.7636
antri	-11.7636
的陷阱	-11.764
maeman	-11.7641
▁zaku	-11.765
rekez	-11.7653
”,	-11.7653
的田	-11.7678
alizi	-11.7679
喜歡的	-11.7685
tiz	-11.769
是不是	-11.769
甜的	-11.7693
▁mela	-11.7694
長的	-11.7697
是非常	-11.7699
我們可以	-11.7701
色的	-11.7702
▁nire	-11.7712
的禮	-11.7726
你工作	-11.7731
的親友	-11.7739
來說	-11.7741
可以到	-11.7745
kiyana	-11.7757
流的	-11.7761
名字的	-11.7763
valra	-11.7764
kez	-11.7784
▁Pin	-11.7804
turus	-11.7815
▁naniwan	-11.7832
malu	-11.7834
農田	-11.7839
angeran	-11.7841
已經成	-11.7848
arametr	-11.7853
冠的青	-11.7862
帶的	-11.7875
▁mutru	-11.7879
ruwa	-11.7898
sul	-11.7906
他跟	-11.7915
他們的	-11.7925
就有	-11.7934
知道的	-11.7957
的三	-11.7972
語言的	-11.799
▁patrepaya	-11.7994
watr	-11.7998
們開始	-11.8002
麼	-11.8008
卑南族有這	-11.8015
uvii	-11.8037
▁kula	-11.8043
時候再	-11.8064
的作	-11.807
lisen	-11.807
下的	-11.8088
我下	-11.8089
▁takesi	-11.8098
▁mip	-11.8109
▁pamelri	-11.8124
ciyu	-11.8131
mauwan	-11.8132
▁kituva	-11.8134
院檢查	-11.8161
▁19	-11.8181
miyak	-11.8186
▁kain	-11.8208
你喝	-11.8208
的哥哥	-11.8209
pet	-11.8211
lralra	-11.8212
Ul	-11.8214
▁tahar	-11.8218
風的	-11.8219
有好	-11.8238
要在	-11.8252
paya	-11.8254
是誰的	-11.826
的地瓜	-11.8268
dada	-11.8268
▁talram	-11.8272
當了	-11.8276
walri	-11.8283
padi	-11.8283
的小	-11.8294
都會回	-11.8295
▁awatran	-11.8306
我等	-11.8312
yumayan	-11.8313
▁vat	-11.8336
住的	-11.8362
ukaw	-11.8376
lretr	-11.8395
在田裡	-11.8402
沒有帶	-11.8413
這把	-11.842
▁pav	-11.8451
得的	-11.8463
▁kamelri	-11.8477
arang	-11.8489
爸爸的名字是	-11.8512
▁revu	-11.853
akatras	-11.8536
▁kakuwaya	-11.8537
uzanum	-11.8539
很辛苦	-11.8559
atrengan	-11.8571
ulasa	-11.8576
tran	-11.8606
小的	-11.862
uvay	-11.8634
與知本	-11.8639
ulretr	-11.8644
tratre	-11.8646
有他	-11.865
▁karaw	-11.8652
▁vinay	-11.8653
天出生的	-11.8659
liyas	-11.8696
▁nadan	-11.8704
▁kak	-11.8707
mur	-11.8746
我知道	-11.8747
iting	-11.8749
文化的	-11.876
ramu	-11.8781
Si	-11.8783
各式各樣的	-11.8788
山的	-11.8793
maz	-11.88
pusa	-11.8812
ikuli	-11.8814
irung	-11.8822
kawud	-11.8825
地的	-11.885
atraran	-11.8859
▁map	-11.8893
▁pazek	-11.8895
elakan	-11.8931
我有一	-11.8937
為我	-11.8949
ingan	-11.8952
▁mala	-11.8955
returus	-11.8972
panay	-11.8975
adek	-11.8979
你上	-11.8987
請我	-11.9012
kasayhu	-11.9015
pap	-11.9051
▁kiyana	-11.9064
iyur	-11.9078
▁menga	-11.9081
atevas	-11.9097
大了	-11.9097
waya	-11.9112
▁lrangi	-11.9121
azar	-11.9182
們也	-11.9186
▁mikakav	-11.9201
tati	-11.9203
avak	-11.9207
dadawa	-11.9221
atatengez	-11.9244
子的	-11.9249
auway	-11.9265
會回	-11.9272
是我	-11.9297
Ava	-11.9313
nawan	-11.9321
進來	-11.9329
我們是	-11.9374
keris	-11.9391
▁masa	-11.9396
angan	-11.9399
ici	-11.9403
上了	-11.9416
祭司就	-11.9433
mes	-11.9445
nav	-11.9455
也跟	-11.9455
小時候我	-11.9491
ratrekel	-11.95
去買菜	-11.9503
maayan	-11.9513
▁save	-11.9599
▁ala	-11.9608
usu	-11.9612
usur	-11.9618
maren	-11.9627
的大	-11.9642
kutr	-11.966
和我	-11.9671
emar	-11.9679
nuyumayan	-11.9689
ris	-11.9703
amili	-11.9728
▁A	-11.973
▁zid	-11.9734
▁Ya	-11.9776
kezanga	-11.9792
atimu	-11.98
▁van	-11.9803
nilungu	-11.9811
mani	-11.9819
田裡種	-11.9902
▁20	-11.9917
▁apu	-11.9962
meret	-12.0012
國小	-12.0016
是兄弟	-12.0029
▁makai	-12.0039
我很想	-12.0084
▁semasaharana	-12.0136
marang	-12.0143
ela	-12.0165
等你	-12.0178
talrimayan	-12.0191
些水果	-12.0223
▁dali	-12.0229
▁li	-12.0236
拿了	-12.0293
▁pinaz	-12.0295
▁kinalr	-12.0312
▁kiumalra	-12.0313
asaw	-12.0323
的很	-12.0343
lriv	-12.0349
▁man	-12.036
的人都	-12.0388
▁4	-12.0412
▁tiya	-12.0494
ire	-12.0495
祭時	-12.0495
▁nir	-12.0535
lram	-12.0539
▁venava	-12.0739
tulr	-12.0785
elretr	-12.0816
縣	-12.0847
angeru	-12.0905
iv	-12.092
▁kalr	-12.0951
matr	-12.1038
▁kutre	-12.1049
petru	-12.1054
我什麼	-12.1105
tutu	-12.1144
▁zazu	-12.1223
apiya	-12.1244
你有幾個兄	-12.1251
rayu	-12.1258
去的	-12.1287
lihu	-12.129
所吟唱的歌	-12.1291
mulri	-12.1303
你什麼時候要還	-12.1311
是好	-12.1327
有賣	-12.1369
dana	-12.1378
enaya	-12.1388
ilra	-12.1464
責	-12.1469
的好	-12.1493
zayar	-12.1503
兩年	-12.1532
▁kam	-12.1584
非常重	-12.1591
nalri	-12.1601
venava	-12.1624
▁tali	-12.1717
iy	-12.1773
um	-12.178
elaliyas	-12.1795
kangaway	-12.1816
patalram	-12.1852
▁nay	-12.1899
akesiy	-12.1927
apida	-12.1928
ik	-12.2213
▁tik	-12.2221
tapes	-12.2231
awayan	-12.2344
的不	-12.2363
semu	-12.2368
輩的	-12.2379
naw	-12.2413
的時	-12.2413
lun	-12.2438
對卑南族	-12.2444
Sa	-12.2522
ulraw	-12.2562
ngulran	-12.2568
amaw	-12.2596
當日	-12.2605
要吃	-12.2615
要什麼	-12.2621
utay	-12.2701
跟我	-12.2712
▁vit	-12.2727
kire	-12.2728
tat	-12.2751
▁mika	-12.2825
las	-12.2827
rip	-12.283
▁paku	-12.2874
ani	-12.2979
▁tri	-12.3021
ariw	-12.3034
kemu	-12.3083
會和我	-12.3153
▁musa	-12.3182
▁til	-12.3253
▁tinav	-12.3281
awariyan	-12.3344
裡看	-12.3432
alremes	-12.3444
▁mukas	-12.3589
▁rare	-12.3687
▁mere	-12.375
ulrang	-12.3804
eru	-12.3815
時候就	-12.383
iku	-12.3833
腳好	-12.3904
udan	-12.3973
族人開	-12.4
的鉛筆	-12.4024
akezang	-12.406
卑南族人的	-12.4065
我家	-12.4096
talaulepan	-12.4122
▁din	-12.4212
kaimaran	-12.4271
kamawa	-12.4304
▁我們要	-12.4415
去河邊	-12.4475
inatray	-12.4514
們是原住民	-12.4535
uwang	-12.4537
renag	-12.4556
nanadam	-12.4635
族人口	-12.4774
mulre	-12.481
的成年	-12.4821
以前有	-12.4865
tratrekel	-12.4875
teng	-12.4946
時候要	-12.5134
忘記帶	-12.5222
-3	-12.5241
▁kanu	-12.5243
iyanay	-12.5373
▁ngi	-12.5397
ong	-12.5492
帶東西	-12.552
今天要	-12.558
▁Kas	-12.5586
的傳說故事	-12.5684
是怎	-12.5702
put	-12.5706
tur	-12.5724
▁truwa	-12.574
mere	-12.5756
生是	-12.5766
你最喜歡	-12.5777
把菜	-12.5846
ulang	-12.5883
rin	-12.5899
ime	-12.6008
uzung	-12.6014
zayazayar	-12.6027
rana	-12.6054
katring	-12.6087
revelr	-12.6109
zuk	-12.6387
▁menana	-12.6406
有哥哥	-12.6413
nun	-12.6447
你怎麼去	-12.6542
▁pul	-12.6595
eret	-12.6622
▁)	-12.6635
▁Sa	-12.6636
樣的	-12.6721
lranan	-12.675
▁mares	-12.686
▁la	-12.6952
在房間	-12.7023
▁tinut	-12.7044
我要這	-12.7098
▁marep	-12.7197
▁utu	-12.7223
uka	-12.7232
就到	-12.7317
沒帶	-12.7323
diyan	-12.7453
多鳥	-12.7471
▁trematra	-12.7491
偷竊的	-12.7594
發出響	-12.7653
▁kakuda	-12.7663
▁vir	-12.7857
ukas	-12.7982
umulr	-12.803
▁kemaya	-12.8215
minga	-12.8247
nuwa	-12.8271
▁taku	-12.8399
tak	-12.8412
ngatr	-12.8433
太平國	-12.8442
▁ver	-12.8488
mata	-12.8546
matrangis	-12.8548
amawan	-12.8676
▁isa	-12.8804
會聚	-12.8835
聚在	-12.8844
sur	-12.8861
麼多的	-12.8872
▁ur	-12.8885
有賣檳榔	-12.8952
明天有	-12.8957
▁maraa	-12.8995
kuwadakudaya	-12.9038
他的家	-12.912
pai	-12.9301
sep	-12.969
kitengan	-12.9837
▁mikuwa	-12.9892
▁mida	-12.9899
齡	-12.9903
鬆	-12.9904
髮	-12.9905
飼	-12.9906
隱	-12.9907
阻	-12.9908
闢	-12.9909
闡	-12.991
釘	-12.9911
酪	-12.9912
酗	-12.9913
鄒	-12.9914
避	-12.9915
遵	-12.9916
贊	-12.9917
賠	-12.9918
豎	-12.9919
謙	-12.992
諱	-12.9921
衛	-12.9922
螞	-12.9923
蝸	-12.9924
蛙	-12.9925
薦	-12.9926
nge	-12.9926
蔬	-12.9927
舟	-12.9928
膝	-12.9929
腹	-12.993
脖	-12.9931
肅	-12.9932
聖	-12.9933
羨	-12.9934
罰	-12.9935
繁	-12.9936
糞	-12.9937
簷	-12.9938
穴	-12.9939
穌	-12.994
礱	-12.9941
矢	-12.9942
盒	-12.9943
皇	-12.9944
甩	-12.9945
瑪	-12.9946
猛	-12.9947
犯	-12.9948
爛	-12.9949
爆	-12.995
焦	-12.9951
瀉	-12.9952
濟	-12.9953
滷	-12.9954
溢	-12.9955
溉	-12.9956
洪	-12.9957
泣	-12.9958
沃	-12.9959
氏	-12.996
毀	-12.9961
殊	-12.9962
櫻	-12.9963
楚	-12.9964
楊	-12.9965
椅	-12.9966
桌	-12.9967
枯	-12.9968
晨	-12.9969
斯	-12.997
斑	-12.9971
敘	-12.9972
攝	-12.9973
擲	-12.9974
授	-12.9975
捆	-12.9976
拾	-12.9977
拒	-12.9978
拋	-12.9979
抹	-12.998
lapi	-12.998
抵	-12.9981
戒	-12.9982
戀	-12.9983
慰	-12.9984
慕	-12.9985
怡	-12.9986
志	-12.9987
忍	-12.9988
徘	-12.9989
徊	-12.999
彼	-12.9991
廚	-12.9992
座	-12.9993
帝	-12.9994
巾	-12.9995
尼	-12.9996
尤	-12.9997
寞	-12.9998
寂	-12.9999
媒	-13
姿	-13.0001
姨	-13.0002
妒	-13.0003
妄	-13.0004
奧	-13.0005
塌	-13.0006
培	-13.0007
坍	-13.0008
嚨	-13.0009
噶	-13.001
嘔	-13.0011
喉	-13.0012
唯	-13.0013
售	-13.0014
厭	-13.0015
勘	-13.0016
凳	-13.0017
償	-13.0018
佈	-13.0019
付	-13.002
仔	-13.0021
京	-13.0022
丘	-13.0023
Z	-13.0024
N	-13.0025
%	-13.0026
閣	-13.0027
鉛	-13.0028
郵	-13.0029
跌	-13.003
賴	-13.0031
貪	-13.0032
謊	-13.0033
詛	-13.0034
裹	-13.0035
虹	-13.0036
蘿	-13.0037
蔔	-13.0038
苧	-13.0039
般	-13.004
臼	-13.0041
羌	-13.0042
罪	-13.0043
繩	-13.0044
糬	-13.0045
篇	-13.0046
筒	-13.0047
筌	-13.0048
碑	-13.0049
碌	-13.005
爾	-13.0051
炎	-13.0052
武	-13.0053
權	-13.0054
檢	-13.0055
橫	-13.0056
普	-13.0057
括	-13.0058
巡	-13.0059
嬰	-13.006
婿	-13.0061
埔	-13.0062
嚀	-13.0063
咱	-13.0064
呈	-13.0065
叮	-13.0066
傍	-13.0067
乎	-13.0068
f	-13.0069
鳳	-13.007
餚	-13.0071
障	-13.0072
▁kuwadakudaya	-13.0073
隙	-13.0073
鑰	-13.0074
邵	-13.0075
邪	-13.0076
遲	-13.0077
輯	-13.0078
蹈	-13.0079
跛	-13.008
讚	-13.0081
衍	-13.0082
蟻	-13.0083
蔗	-13.0084
舒	-13.0085
脫	-13.0086
羽	-13.0087
系	-13.0088
箴	-13.0089
碼	-13.009
睛	-13.0091
盼	-13.0092
盜	-13.0093
獲	-13.0094
烘	-13.0095
濕	-13.0096
注	-13.0097
梯	-13.0098
梨	-13.0099
案	-13.01
惜	-13.0101
怒	-13.0102
延	-13.0103
庫	-13.0104
幹	-13.0105
嬸	-13.0106
夥	-13.0107
咩	-13.0108
召	-13.0109
協	-13.011
凡	-13.0111
偏	-13.0112
伯	-13.0113
鷹	-13.0114
魯	-13.0115
顏	-13.0116
蝶	-13.0117
蝴	-13.0118
朽	-13.0119
▁kanata	-13.012
暑	-13.012
春	-13.0121
戚	-13.0122
憶	-13.0123
慧	-13.0124
怪	-13.0125
專	-13.0126
奪	-13.0127
咒	-13.0128
呂	-13.0129
伏	-13.013
驕	-13.0131
鐮	-13.0132
脈	-13.0133
級	-13.0134
突	-13.0135
穫	-13.0136
玉	-13.0137
淨	-13.0138
涼	-13.0139
桑	-13.014
嶼	-13.0141
尾	-13.0142
努	-13.0143
闆	-13.0144
茅	-13.0145
育	-13.0146
聯	-13.0147
索	-13.0148
檳	-13.0149
擁	-13.015
復	-13.0151
士	-13.0152
凱	-13.0153
偶	-13.0154
G	-13.0155
mima	-13.0155
閩	-13.0156
釋	-13.0157
迦	-13.0158
辛	-13.0159
謂	-13.016
蜻	-13.0161
蜓	-13.0162
耆	-13.0163
漂	-13.0164
忌	-13.0165
庭	-13.0166
韆	-13.0167
鞦	-13.0168
摩	-13.0169
托	-13.017
康	-13.0171
察	-13.0172
宜	-13.0173
冬	-13.0174
H	-13.0175
釣	-13.0176
警	-13.0177
秋	-13.0178
希	-13.0179
優	-13.018
珍	-13.0181
府	-13.0182
尋	-13.0183
夏	-13.0184
糯	-13.0185
狩	-13.0186
森	-13.0187
遇	-13.0188
甚	-13.0189
游	-13.019
泳	-13.0191
R	-13.0192
鐺	-13.0193
謠	-13.0194
築	-13.0195
橡	-13.0196
嘉	-13.0197
醫	-13.0198
邀	-13.0199
術	-13.02
虛	-13.0201
儀	-13.0202
祝	-13.0203
祀	-13.0204
爺	-13.0205
阱	-13.0206
泰	-13.0207
賽	-13.0208
麗	-13.0209
紹	-13.021
星	-13.0211
備	-13.0212
叔	-13.0213
忘	-13.0214
己	-13.0215
Y	-13.0216
D	-13.0217
I	-13.0218
V	-13.0219
衣	-13.022
司	-13.0221
L	-13.0222
M	-13.0223
b	-13.0224
怎	-13.0225
K	-13.0226
爸	-13.0227
T	-13.0228
什	-13.0229
卑	-13.023
S	-13.0231
南	-13.0232
P	-13.0233
你借	-13.0233
